<unk>	0
<s>	0
</s>	0
▁the	-3.11815
s	-3.11968
▁,	-3.28351
▁.	-3.59422
ed	-3.69329
▁	-3.79358
▁of	-3.84619
▁and	-3.9649
▁in	-4.17761
▁to	-4.17879
▁a	-4.20272
ing	-4.43492
▁=	-4.50106
▁"	-4.54464
y	-4.62132
▁was	-4.83889
@	-4.86433
▁@	-4.91032
▁'	-4.96265
▁The	-4.97643
-	-5.0362
d	-5.03763
ly	-5.0953
▁on	-5.2301
▁that	-5.23898
▁with	-5.25504
▁for	-5.2769
▁as	-5.37168
▁by	-5.39058
▁)	-5.40261
(	-5.40361
▁is	-5.4294
▁be	-5.49676
e	-5.67869
▁from	-5.69711
.	-5.71147
▁his	-5.75037
▁at	-5.7911
▁were	-5.89497
▁it	-5.89787
▁he	-6.08264
▁In	-6.09165
▁an	-6.09852
▁had	-6.14667
▁which	-6.17482
t	-6.20032
▁A	-6.34253
▁are	-6.34435
n	-6.35096
▁;	-6.44714
a	-6.46479
▁their	-6.47099
▁not	-6.47287
▁but	-6.48719
th	-6.49105
▁first	-6.5034
–	-6.51828
er	-6.5376
ies	-6.54901
▁:	-6.55136
▁her	-6.57171
▁or	-6.57843
al	-6.58886
also	-6.62476
▁have	-6.64886
▁its	-6.66752
▁one	-6.67004
l	-6.67054
▁has	-6.67917
▁been	-6.70912
▁two	-6.7121
▁who	-6.71786
▁He	-6.73302
on	-6.74042
▁this	-6.76275
▁I	-6.79283
▁year	-6.81191
st	-6.83135
▁@,@	-6.89511
▁after	-6.90122
▁It	-6.91168
o	-6.92481
▁1	-6.92609
▁other	-6.93231
▁time	-6.93664
▁into	-6.99635
▁19	-7.01367
▁2	-7.0349
▁would	-7.03702
es	-7.04703
▁more	-7.04811
▁over	-7.08222
▁all	-7.11478
▁F	-7.13195
mber	-7.14416
ce	-7.14691
▁up	-7.15824
▁she	-7.16138
▁B	-7.16675
▁when	-7.16744
▁game	-7.18062
▁3	-7.20252
▁most	-7.20529
ary	-7.21149
during	-7.22882
in	-7.23485
▁play	-7.2563
r	-7.26627
▁only	-7.26747
about	-7.2682
▁him	-7.27503
▁out	-7.28642
tween	-7.28734
▁C	-7.28988
▁again	-7.29093
▁three	-7.29587
▁season	-7.3012
▁On	-7.30895
▁than	-7.32333
▁T	-7.32868
▁through	-7.34366
us	-7.3525
▁later	-7.36479
▁while	-7.36829
se	-7.37058
ish	-7.3761
▁some	-7.37996
made	-7.39219
▁new	-7.39324
▁S	-7.39862
▁5	-7.40308
i	-7.41672
able	-7.432
▁us	-7.43357
▁where	-7.45852
▁use	-7.46252
▁second	-7.46292
▁4	-7.46554
▁M	-7.46611
▁film	-7.46776
ity	-7.46904
such	-7.46923
▁part	-7.47002
▁U	-7.47269
▁number	-7.47482
▁song	-7.47544
▁New	-7.47902
▁18	-7.47949
ion	-7.48675
▁follow	-7.48994
▁them	-7.49128
h	-7.49629
▁This	-7.49629
▁record	-7.50809
▁work	-7.51322
▁000	-7.5147
▁before	-7.51975
le	-7.53245
▁under	-7.53598
▁call	-7.5398
▁album	-7.56245
▁large	-7.56848
▁end	-7.57516
land	-7.5757
▁can	-7.58757
▁being	-7.5897
gan	-7.59298
▁name	-7.59596
▁high	-7.59671
▁area	-7.60295
▁series	-7.60396
▁includ	-7.61453
▁there	-7.61602
an	-7.62424
▁both	-7.6275
▁de	-7.63479
▁m	-7.63548
▁no	-7.63685
came	-7.63718
en	-7.64488
▁form	-7.64826
▁al	-7.65024
▁show	-7.65058
▁/	-7.65551
▁well	-7.66179
▁known	-7.66563
▁episode	-7.66589
out	-7.6666
▁—	-7.6731
▁like	-7.67912
though	-7.68708
▁many	-7.70248
▁found	-7.7086
▁United	-7.71171
▁6	-7.71796
▁long	-7.72168
▁10	-7.73318
▁century	-7.74152
▁four	-7.74958
ic	-7.75325
▁After	-7.7557
▁American	-7.76503
cause	-7.78252
est	-7.78345
▁team	-7.78938
▁near	-7.79207
▁so	-7.79535
▁remain	-7.80948
▁Brit	-7.81425
▁release	-7.81907
▁early	-7.82463
▁could	-7.82531
▁then	-7.82919
▁did	-7.8368
▁final	-7.83751
▁20	-7.83876
ever	-7.84737
▁R	-7.8516
▁along	-7.85249
▁force	-7.85303
▁may	-7.86213
▁sai	-7.87255
m	-7.87282
▁character	-7.87826
▁8	-7.8881
▁E	-7.89006
▁place	-7.89057
▁day	-7.89335
▁She	-7.89418
▁As	-7.89709
round	-7.89943
▁unti	-7.90123
▁back	-7.90395
▁7	-7.90825
▁same	-7.91574
▁city	-7.91588
▁original	-7.91719
▁0	-7.9173
2	-7.91861
▁At	-7.92511
▁9	-7.92859
▁million	-7.92921
▁people	-7.93028
▁return	-7.93228
man	-7.93439
▁D	-7.9384
▁km	-7.93968
▁player	-7.94066
▁w	-7.94626
▁main	-7.94828
▁un	-7.95323
▁how	-7.95814
▁P	-7.96278
▁John	-7.96349
▁South	-7.96365
um	-7.96853
▁12	-7.97048
▁ship	-7.97234
▁August	-7.97724
▁May	-7.97793
▁North	-7.98224
▁down	-7.98394
▁start	-7.9855
▁off	-7.9862
▁support	-7.99426
▁any	-7.99656
▁War	-8.00566
1	-8.00821
▁small	-8.00828
nother	-8.01044
▁16	-8.0131
▁life	-8.01992
▁lead	-8.02054
▁group	-8.0232
▁each	-8.02884
▁German	-8.03755
▁World	-8.04039
ry	-8.04733
▁O	-8.05171
▁five	-8.05568
▁single	-8.05701
ber	-8.05966
▁N	-8.05991
▁result	-8.06276
▁appear	-8.06743
▁Septe	-8.07012
ation	-8.08097
▁15	-8.08247
▁attack	-8.08267
▁own	-8.08466
▁music	-8.0854
ok	-8.08881
▁point	-8.09079
4	-8.09697
▁June	-8.09816
▁state	-8.10204
▁Dur	-8.10357
▁Al	-8.10449
▁consider	-8.11001
▁order	-8.11034
▁since	-8.12152
▁what	-8.12364
▁line	-8.12515
▁take	-8.13139
▁They	-8.13787
▁17	-8.14531
▁late	-8.15108
▁will	-8.1514
▁severa	-8.15173
▁States	-8.15505
▁set	-8.16183
▁last	-8.16446
▁Octo	-8.16557
▁11	-8.16994
▁system	-8.17082
$	-8.17216
▁week	-8.17629
▁great	-8.17823
▁home	-8.18099
ten	-8.18574
ment	-8.18908
▁...	-8.18989
rote	-8.19065
[	-8.1923
▁world	-8.19451
if	-8.19506
▁t	-8.19716
▁now	-8.19931
▁role	-8.20047
ril	-8.20426
▁Ap	-8.20727
▁won	-8.209
▁receiv	-8.21591
▁child	-8.216
▁famil	-8.2162
▁due	-8.22085
▁war	-8.22877
▁reach	-8.23383
very	-8.23792
▁death	-8.2381
▁allow	-8.23893
▁direct	-8.24242
3	-8.24821
▁York	-8.25205
▁Janu	-8.25243
▁storm	-8.25408
▁six	-8.2552
▁left	-8.25815
▁England	-8.26105
▁government	-8.2612
▁short	-8.26456
▁include	-8.26498
▁video	-8.26689
▁position	-8.26881
ton	-8.27076
6	-8.27215
▁attempt	-8.27568
▁feature	-8.27574
▁base	-8.27706
▁March	-8.27728
▁re	-8.28049
▁30	-8.28209
ese	-8.28478
▁third	-8.28606
▁No	-8.28832
▁general	-8.28943
▁title	-8.2902
▁K	-8.29575
▁do	-8.29708
▁previous	-8.29954
▁included	-8.30128
▁become	-8.30149
▁open	-8.3026
u	-8.3031
▁Man	-8.30623
▁north	-8.30688
▁design	-8.30947
▁book	-8.31095
▁describ	-8.31494
▁make	-8.31577
▁school	-8.31627
▁water	-8.3187
ver	-8.3235
▁south	-8.32799
▁mov	-8.328
▁13	-8.33256
▁His	-8.33337
▁major	-8.33398
▁River	-8.33504
▁perform	-8.33727
▁develop	-8.33728
▁buil	-8.34058
▁men	-8.34131
▁City	-8.34472
ren	-8.34493
▁just	-8.34531
▁way	-8.34555
▁14	-8.3517
▁W	-8.35509
▁When	-8.35707
▁month	-8.35723
9	-8.35733
▁version	-8.35888
▁Nove	-8.35977
▁go	-8.35979
▁period	-8.3693
▁even	-8.37156
▁2009	-8.37325
▁2010	-8.37479
▁25	-8.37518
▁best	-8.37571
▁local	-8.37601
S	-8.37923
▁2008	-8.37973
▁National	-8.38
▁II	-8.38097
▁US	-8.38181
▁Dece	-8.38502
▁There	-8.38507
5	-8.38621
▁club	-8.3978
son	-8.39877
▁old	-8.40105
▁side	-8.40402
▁e	-8.40862
▁close	-8.41073
way	-8.41103
▁public	-8.41204
▁By	-8.41314
▁L	-8.41391
▁still	-8.41473
▁complete	-8.42131
▁career	-8.42173
▁common	-8.42481
▁Howe	-8.42554
▁top	-8.42639
ness	-8.42986
▁games	-8.43051
▁present	-8.4368
▁All	-8.43827
▁site	-8.43827
▁led	-8.43907
▁100	-8.44147
▁change	-8.44229
▁list	-8.44285
▁power	-8.4438
▁fire	-8.44711
▁few	-8.45093
company	-8.45256
▁next	-8.45611
▁2007	-8.4562
▁b	-8.4576
▁help	-8.46136
▁often	-8.46261
▁English	-8.46317
▁One	-8.46389
▁publish	-8.46489
▁An	-8.4655
▁establish	-8.46574
▁arm	-8.46607
▁French	-8.46675
▁building	-8.46713
▁similar	-8.46852
age	-8.46883
▁Be	-8.48076
▁Jul	-8.48206
▁State	-8.4825
▁right	-8.48387
▁St	-8.48505
▁head	-8.48585
▁turn	-8.4861
▁writ	-8.4874
▁seven	-8.49563
▁you	-8.49668
▁level	-8.49937
▁half	-8.50471
▁claim	-8.50679
▁With	-8.50713
▁Division	-8.50864
▁contain	-8.51197
▁former	-8.51256
▁among	-8.51424
▁run	-8.51446
▁For	-8.51664
▁church	-8.51841
ther	-8.52033
▁want	-8.52195
ive	-8.52337
by	-8.52425
ty	-8.52683
▁di	-8.52903
▁came	-8.52927
▁production	-8.52966
▁full	-8.53207
▁population	-8.53509
▁review	-8.53892
▁total	-8.5397
▁To	-8.53983
▁suggest	-8.5399
▁pass	-8.54175
te	-8.54217
▁further	-8.54274
et	-8.54295
▁2011	-8.54481
▁199	-8.54716
▁different	-8.54854
▁damage	-8.54995
▁track	-8.55062
▁though	-8.55223
▁According	-8.5524
▁2006	-8.55255
▁H	-8.55285
▁Church	-8.55434
▁field	-8.55476
▁histor	-8.56013
▁militar	-8.56457
▁particular	-8.56804
▁official	-8.56837
▁issue	-8.56964
▁add	-8.56979
&	-8.57199
ebru	-8.57259
▁G	-8.57676
ers	-8.57797
held	-8.57843
▁strong	-8.58495
▁League	-8.586
▁human	-8.58619
is	-8.58756
▁move	-8.58771
▁increase	-8.58803
▁196	-8.58858
▁releas	-8.58944
▁kill	-8.59102
▁control	-8.59217
▁every	-8.59228
▁service	-8.60022
gave	-8.60479
▁defeat	-8.60627
▁Song	-8.60855
▁Dylan	-8.61038
▁unit	-8.61295
▁J	-8.61391
ie	-8.61816
▁continue	-8.61944
▁21	-8.62252
▁2012	-8.62301
▁land	-8.62451
▁cover	-8.62528
▁man	-8.62621
▁reported	-8.62703
▁story	-8.6288
▁body	-8.631
▁songs	-8.63119
▁match	-8.63604
▁General	-8.63965
▁tropic	-8.64079
▁east	-8.64313
▁hav	-8.64427
▁house	-8.6466
▁days	-8.64664
▁region	-8.64775
▁finish	-8.64931
▁critic	-8.64939
▁Japan	-8.65031
stead	-8.65335
ism	-8.65441
▁see	-8.65457
▁air	-8.65468
▁fee	-8.6565
▁project	-8.66252
▁live	-8.66557
▁continu	-8.66618
▁writing	-8.66657
▁low	-8.66663
▁America	-8.66788
▁country	-8.67082
▁we	-8.671
▁west	-8.67349
▁produc	-8.67427
▁star	-8.67429
▁h	-8.67437
z	-8.6765
▁Whil	-8.67655
▁term	-8.67686
▁members	-8.67824
▁per	-8.67854
▁young	-8.67906
▁thought	-8.67989
ve	-8.67993
▁Park	-8.68025
▁mak	-8.68279
▁2013	-8.68309
▁range	-8.68758
▁tour	-8.68775
▁operation	-8.68861
▁style	-8.69145
▁light	-8.69229
▁bas	-8.6942
▁never	-8.69428
▁plan	-8.69503
went	-8.69558
▁popular	-8.69991
▁Universit	-8.70058
lost	-8.7008
ous	-8.7008
▁action	-8.70096
▁development	-8.70496
▁Arm	-8.70553
▁less	-8.7124
▁town	-8.71387
▁Australian	-8.71407
hose	-8.71592
▁ft	-8.71613
▁age	-8.71674
species	-8.71871
self	-8.71877
▁band	-8.71979
▁West	-8.71988
▁award	-8.72036
▁stated	-8.72046
▁scene	-8.7243
▁win	-8.72432
▁chart	-8.72907
▁Ire	-8.72979
▁enter	-8.72991
x	-8.73009
given	-8.73031
▁novel	-8.73047
▁hour	-8.73069
▁join	-8.73326
▁real	-8.73357
ether	-8.73449
▁23	-8.73545
▁earlie	-8.73596
▁island	-8.73748
▁provide	-8.73776
▁You	-8.7394
seen	-8.74118
▁writer	-8.74264
▁197	-8.7448
▁22	-8.74495
▁scor	-8.74523
▁element	-8.74701
▁white	-8.75139
felt	-8.75182
▁London	-8.75412
▁50	-8.75465
▁route	-8.75492
▁28	-8.75847
▁How	-8.76252
▁good	-8.76378
▁himself	-8.76439
▁toward	-8.76528
▁get	-8.77222
▁King	-8.77468
▁Australia	-8.77619
▁significant	-8.77882
▁24	-8.77891
▁sign	-8.78213
ern	-8.78279
▁important	-8.78609
▁road	-8.78624
▁initial	-8.78798
▁father	-8.79096
▁Black	-8.79131
ical	-8.79245
▁stage	-8.79346
▁female	-8.79539
▁television	-8.79548
▁eight	-8.79733
nd	-8.79796
▁performance	-8.79953
▁various	-8.80036
▁interest	-8.80057
ley	-8.80085
8	-8.80246
▁minute	-8.80295
▁act	-8.80314
▁black	-8.80785
▁James	-8.80818
▁date	-8.80868
▁miles	-8.81044
▁describe	-8.81063
▁caus	-8.81749
▁success	-8.81752
▁successful	-8.81802
▁case	-8.81848
▁does	-8.81991
▁peak	-8.82311
▁muc	-8.82411
ally	-8.82477
▁political	-8.82631
▁discover	-8.82643
▁mm	-8.83304
▁son	-8.83708
▁art	-8.83728
▁poem	-8.83843
▁look	-8.83867
ither	-8.83986
▁ground	-8.84148
▁example	-8.84365
▁ten	-8.84467
▁County	-8.84568
▁sent	-8.84645
▁26	-8.8488
▁events	-8.85108
c	-8.85129
▁Road	-8.8515
▁need	-8.8526
▁creat	-8.85363
▁should	-8.85416
▁effect	-8.85652
▁structure	-8.86103
▁eventual	-8.86264
▁c	-8.86787
▁modern	-8.86958
▁give	-8.87267
▁2004	-8.87289
▁entire	-8.87533
▁2005	-8.87551
▁construction	-8.87571
▁represent	-8.88306
across	-8.88391
▁mid	-8.88477
▁V	-8.89345
▁leas	-8.89859
7	-8.90034
’	-8.90254
▁national	-8.90312
▁times	-8.90405
▁sever	-8.90531
hind	-8.90586
▁influence	-8.91036
▁hurricane	-8.91085
▁score	-8.91238
▁debut	-8.91643
▁27	-8.91653
▁face	-8.91738
▁difficult	-8.91923
▁Kingdom	-8.91928
▁word	-8.92036
▁wide	-8.9219
▁campaign	-8.92204
▁victor	-8.92765
uch	-8.92799
▁addition	-8.93049
▁Cup	-8.9307
▁come	-8.9309
▁offer	-8.93268
▁Company	-8.9362
▁Island	-8.93844
▁fight	-8.93861
▁night	-8.93973
line	-8.93987
▁view	-8.94271
▁highway	-8.94366
▁litt	-8.94454
▁too	-8.94545
el	-8.94609
▁Robert	-8.95229
▁visit	-8.95296
▁Love	-8.95318
▁figure	-8.95357
▁report	-8.9539
▁class	-8.95671
▁Some	-8.95689
▁male	-8.95708
g	-8.95871
▁Battalion	-8.95929
▁cause	-8.95968
▁born	-8.9616
▁David	-8.96225
▁wife	-8.96246
▁southern	-8.96248
▁France	-8.96281
▁coast	-8.96318
▁comment	-8.96524
▁Brigade	-8.97104
▁guns	-8.97113
▁women	-8.97115
▁study	-8.97144
▁mi	-8.97279
▁goal	-8.9738
▁love	-8.97409
k	-8.97494
or	-8.97525
▁command	-8.97622
▁put	-8.9776
▁mother	-8.97795
▁process	-8.97815
▁eastern	-8.98085
▁noted	-8.98259
ought	-8.98309
▁relationship	-8.98312
less	-8.98503
▁free	-8.98503
▁2003	-8.98619
▁Grand	-8.98932
re	-8.98992
▁exist	-8.99246
▁2015	-8.99521
▁Other	-8.99556
▁image	-8.9957
▁loss	-8.99661
▁We	-8.99808
▁experience	-8.99946
▁Music	-9.00414
▁fourth	-9.00634
▁post	-9.00644
▁Europe	-9.00697
▁European	-9.0077
▁40	-9.01122
▁Roman	-9.01764
▁heavy	-9.01946
▁Her	-9.01998
▁non	-9.02064
▁idea	-9.02074
▁decided	-9.02178
▁race	-9.02376
▁specie	-9.02421
▁God	-9.02567
▁problem	-9.02568
▁White	-9.0263
▁stars	-9.02689
▁De	-9.02774
▁sold	-9.02821
▁featur	-9.0287
▁William	-9.02956
ford	-9.02983
▁create	-9.03154
cy	-9.03179
▁individual	-9.03194
▁East	-9.03384
▁lack	-9.0351
▁gun	-9.03607
▁director	-9.03638
▁consist	-9.03738
▁condom	-9.03825
▁rule	-9.04073
▁29	-9.04172
▁limit	-9.04266
▁Carey	-9.04268
▁program	-9.04384
▁Royal	-9.0447
▁locat	-9.0462
▁communit	-9.04978
▁member	-9.04981
▁rest	-9.04981
ship	-9.05031
é	-9.05067
▁accept	-9.05188
▁shot	-9.05192
ium	-9.05272
▁village	-9.0559
▁tog	-9.05645
▁believe	-9.05709
▁Federer	-9.06062
▁protein	-9.06065
▁begin	-9.06104
▁Ma	-9.06206
▁hand	-9.06246
▁fall	-9.0691
▁find	-9.06972
▁appearance	-9.06978
▁front	-9.07013
▁International	-9.07034
▁George	-9.07057
rought	-9.07069
▁source	-9.0709
▁manager	-9.07111
▁center	-9.07396
▁yard	-9.07652
▁language	-9.07689
▁activit	-9.07697
▁me	-9.07754
▁Wales	-9.0777
taken	-9.07819
▁grow	-9.08024
▁co	-9.08114
▁regular	-9.08348
▁current	-9.08369
▁Christian	-9.08444
ircraft	-9.08939
▁liv	-9.09193
▁destroy	-9.09229
lso	-9.09287
ities	-9.09433
▁Hero	-9.09599
▁wall	-9.09633
▁194	-9.09737
▁announc	-9.09915
▁battle	-9.09915
▁my	-9.09925
▁Street	-9.1002
▁Earl	-9.10335
▁clear	-9.10339
▁Championship	-9.10353
▁cell	-9.10413
▁rock	-9.10462
▁opening	-9.10607
▁artist	-9.10627
▁Follow	-9.1069
side	-9.10753
▁size	-9.10921
▁river	-9.10947
▁receive	-9.1097
ch	-9.11001
▁Game	-9.11019
▁Jordan	-9.11029
spite	-9.11053
▁works	-9.11141
▁Le	-9.1116
▁voice	-9.11256
▁far	-9.1134
▁regard	-9.11369
▁From	-9.11378
▁evidence	-9.11388
▁hit	-9.11466
▁produce	-9.115
▁event	-9.11506
▁central	-9.11592
▁p	-9.11597
▁commercial	-9.11653
▁gain	-9.1174
coming	-9.12096
K	-9.12291
▁draw	-9.12671
▁agree	-9.12766
▁200	-9.128
▁fail	-9.12938
▁saw	-9.13132
ia	-9.13148
▁House	-9.13322
▁reveal	-9.13434
▁subsequent	-9.13436
▁rank	-9.13457
▁Port	-9.13615
▁Ju	-9.13842
▁launch	-9.13871
▁Nav	-9.13918
ne	-9.14062
▁northern	-9.14167
▁troops	-9.14241
▁Rock	-9.14464
▁ever	-9.14488
ance	-9.14531
▁cit	-9.14625
▁average	-9.14649
▁Mary	-9.14876
▁ask	-9.15163
▁section	-9.15213
lorida	-9.15473
▁location	-9.15647
▁possible	-9.15756
▁outside	-9.15818
▁league	-9.15917
▁crew	-9.15926
▁recording	-9.1593
▁competition	-9.16256
▁station	-9.16261
▁500	-9.16421
▁international	-9.16614
▁effort	-9.16615
▁Most	-9.16768
▁31	-9.16848
▁mean	-9.16927
▁saying	-9.16999
▁Michael	-9.17058
▁whom	-9.17069
▁Part	-9.17078
field	-9.17169
▁contract	-9.17238
▁person	-9.1728
▁Missouri	-9.17335
▁Hurricane	-9.17336
▁poor	-9.17389
▁extend	-9.17537
▁break	-9.1759
ld	-9.17686
▁flood	-9.17689
▁San	-9.17711
▁court	-9.17722
▁2001	-9.17736
▁Paul	-9.17863
one	-9.17873
▁length	-9.17999
▁cast	-9.18119
▁mix	-9.18282
▁reason	-9.18351
▁Tech	-9.18401
▁material	-9.18791
▁producer	-9.19044
▁ra	-9.19067
▁appoint	-9.19122
▁Red	-9.19149
▁quick	-9.1916
▁Day	-9.1922
▁Indian	-9.19333
▁account	-9.194
▁ball	-9.19489
▁yards	-9.1953
ian	-9.19779
▁magazine	-9.19921
▁stay	-9.19945
▁learn	-9.20271
▁Great	-9.2028
wood	-9.20308
▁leave	-9.20511
▁First	-9.20652
▁availab	-9.2072
ma	-9.20887
▁condition	-9.2102
▁1970	-9.21031
▁decision	-9.21032
▁conduct	-9.21059
▁Best	-9.21185
mph	-9.21221
▁serve	-9.21249
more	-9.21275
▁travel	-9.21812
▁above	-9.2189
▁king	-9.21931
▁provid	-9.22072
£	-9.22151
read	-9.22219
ine	-9.22305
▁approach	-9.22439
▁horse	-9.22507
▁working	-9.22534
▁positive	-9.22538
▁office	-9.22848
▁studio	-9.22914
▁say	-9.22985
▁law	-9.22992
▁soon	-9.23043
▁Africa	-9.23214
▁maintain	-9.23297
▁business	-9.23301
town	-9.23311
▁others	-9.23313
▁plann	-9.23498
▁tree	-9.23541
▁serv	-9.23643
▁Canada	-9.23695
▁letter	-9.23715
▁winds	-9.2378
▁President	-9.24084
▁construct	-9.24344
▁2000	-9.24351
°	-9.24454
▁Henry	-9.24469
▁usual	-9.24475
▁referr	-9.24564
▁stor	-9.24631
▁India	-9.24652
▁machine	-9.24898
tlantic	-9.24993
▁Sun	-9.25053
▁195	-9.25116
▁think	-9.25127
▁Oldham	-9.25241
▁1990	-9.25251
▁metre	-9.25293
▁sea	-9.25297
▁separate	-9.25364
▁interview	-9.25397
▁authorit	-9.2556
▁sometime	-9.25661
▁burn	-9.25699
▁Bay	-9.25715
▁Sea	-9.25717
▁Chin	-9.25723
▁met	-9.25772
▁And	-9.2586
▁Peter	-9.25867
▁Olivier	-9.26033
▁Jack	-9.26104
day	-9.26113
II	-9.26513
▁western	-9.26522
▁nine	-9.26554
▁lower	-9.26681
▁rate	-9.26748
▁Me	-9.26769
▁response	-9.26812
▁concert	-9.26812
▁red	-9.26985
ra	-9.27085
N	-9.27149
▁Regiment	-9.2721
▁recent	-9.27212
▁taking	-9.27227
▁round	-9.27259
▁involv	-9.27259
▁write	-9.27267
▁mention	-9.27298
▁social	-9.27557
▁Mexico	-9.2761
▁Vietnam	-9.27611
▁charge	-9.27633
▁Later	-9.27649
▁deal	-9.27664
▁focus	-9.27995
▁Irish	-9.28018
▁special	-9.28116
▁School	-9.28412
▁transport	-9.28613
▁advance	-9.28668
▁Tw	-9.28738
▁Mark	-9.28801
▁brother	-9.28828
▁Times	-9.28914
▁flight	-9.29215
▁Canadian	-9.29227
▁Thomas	-9.29228
▁football	-9.29343
▁must	-9.29494
▁prevent	-9.29633
▁capital	-9.29638
▁test	-9.29718
▁thing	-9.29729
▁hold	-9.29781
low	-9.29808
▁broke	-9.29838
▁Brown	-9.29869
▁Mount	-9.30042
▁religious	-9.30045
▁slow	-9.30143
▁stone	-9.30255
▁explain	-9.30456
▁network	-9.30456
▁subject	-9.30506
▁surface	-9.30508
▁pressure	-9.30538
▁forward	-9.30614
▁prais	-9.30833
▁1960	-9.30888
▁pre	-9.30928
▁studie	-9.31006
▁intend	-9.3102
▁believ	-9.31276
▁Guitar	-9.31284
▁increasing	-9.31288
special	-9.31307
▁approximate	-9.31406
▁piece	-9.31472
▁standard	-9.31474
▁car	-9.31518
▁nam	-9.31664
▁That	-9.31705
▁foot	-9.3172
▁professional	-9.31738
▁friend	-9.31807
ll	-9.31864
▁port	-9.3206
▁specific	-9.32092
▁NY	-9.32207
▁actor	-9.32233
ves	-9.32241
▁seem	-9.32349
▁relative	-9.32578
▁typical	-9.3258
▁fact	-9.32612
▁60	-9.32646
▁space	-9.32808
ar	-9.32986
▁election	-9.33046
▁goals	-9.33269
▁Hall	-9.33341
▁fly	-9.33352
▁territor	-9.33376
▁certain	-9.33385
▁might	-9.33397
▁winning	-9.33398
▁injur	-9.33401
▁cost	-9.33424
▁police	-9.33627
▁past	-9.33777
▁Pacific	-9.33811
▁immediate	-9.33811
▁additional	-9.33821
▁Union	-9.33837
▁division	-9.33858
▁introduc	-9.33865
▁display	-9.3424
▁detail	-9.34245
▁Light	-9.34247
▁depression	-9.34251
▁movement	-9.34334
▁Re	-9.34496
▁beginning	-9.34674
▁Wheeler	-9.34679
▁according	-9.34798
▁occurr	-9.3485
w	-9.34907
ial	-9.34929
▁food	-9.35106
▁gold	-9.35109
▁2002	-9.35149
▁resident	-9.35236
▁00	-9.35251
▁Du	-9.35433
rd	-9.35479
▁daughter	-9.35576
▁training	-9.35597
▁type	-9.35603
latter	-9.3565
▁pitch	-9.35706
▁cut	-9.35786
▁Air	-9.35788
ility	-9.36014
▁fund	-9.36319
▁battalion	-9.36403
▁Film	-9.36409
▁chose	-9.36473
▁Star	-9.36493
▁Award	-9.36539
▁Richard	-9.36631
▁media	-9.36825
▁Catholic	-9.36841
▁coach	-9.3685
▁Jin	-9.37014
▁forest	-9.37044
▁Force	-9.37047
▁know	-9.37108
▁capture	-9.37117
14	-9.37209
▁leg	-9.37298
▁room	-9.37434
▁host	-9.37515
▁research	-9.37613
▁Creek	-9.37725
▁soldier	-9.37769
▁Histor	-9.37775
ory	-9.37885
▁earn	-9.37924
▁president	-9.38084
▁Sinc	-9.38157
ball	-9.38204
most	-9.38212
▁personal	-9.38519
▁affect	-9.38618
▁arriv	-9.38625
ham	-9.38697
▁futur	-9.38697
▁fleet	-9.38776
▁Hill	-9.38838
▁poet	-9.38966
▁sound	-9.38999
▁attend	-9.39047
▁industr	-9.39055
▁animal	-9.39068
▁centre	-9.3908
▁Charles	-9.39116
▁replac	-9.39158
▁Old	-9.39178
▁spen	-9.39213
▁woman	-9.3929
▁anti	-9.39515
▁running	-9.39543
▁better	-9.3957
▁La	-9.39628
▁boat	-9.39667
formation	-9.39694
▁watch	-9.39892
▁cross	-9.40024
▁mass	-9.40207
▁reference	-9.40275
▁probabl	-9.40321
▁Route	-9.40424
▁concern	-9.40427
▁culture	-9.40513
▁practice	-9.40618
▁hard	-9.40667
▁Z	-9.40884
▁heavi	-9.40885
▁quarter	-9.40894
▁Awards	-9.40924
tic	-9.40955
▁meeting	-9.41077
▁trade	-9.41119
▁save	-9.41174
▁read	-9.41413
▁th	-9.41526
▁X	-9.41704
▁Law	-9.41817
▁summer	-9.41878
▁Scott	-9.42045
▁cap	-9.42062
▁share	-9.42198
▁grant	-9.42286
ist	-9.423
▁amount	-9.42379
▁But	-9.42466
▁critical	-9.42609
▁prior	-9.42724
▁fifth	-9.42738
▁TV	-9.42751
▁students	-9.42766
▁tell	-9.42812
▁related	-9.42836
osaurus	-9.4285
▁connect	-9.43155
▁1980	-9.43202
▁radio	-9.43254
▁dam	-9.43355
▁double	-9.43453
▁shape	-9.43495
▁Zealand	-9.43553
▁staff	-9.43772
▁bring	-9.43904
▁author	-9.4404
A	-9.44092
▁Arab	-9.44115
▁45	-9.44274
▁remov	-9.44379
▁musical	-9.44499
▁assign	-9.44623
ney	-9.44626
▁Western	-9.44638
▁compar	-9.44679
▁cm	-9.44685
▁My	-9.4485
▁suffer	-9.44878
▁involve	-9.45047
▁birds	-9.4505
▁Super	-9.45084
▁Olympic	-9.45085
▁protect	-9.45115
▁Wal	-9.45217
▁notes	-9.45387
▁depict	-9.45497
▁audience	-9.45562
▁private	-9.45566
▁Year	-9.45579
▁80	-9.45842
▁commander	-9.45957
▁select	-9.45965
▁treat	-9.46034
▁Haifa	-9.46043
▁Scientology	-9.46043
▁respective	-9.46054
▁market	-9.46059
▁35	-9.46098
illboard	-9.46227
ose	-9.46231
▁tower	-9.46308
▁model	-9.46338
95	-9.4635
▁meet	-9.46371
▁deliver	-9.46528
men	-9.46739
▁deep	-9.47006
▁Parliament	-9.47011
▁nature	-9.47014
▁Association	-9.47014
▁Saint	-9.47019
▁2016	-9.47038
▁Ri	-9.47166
▁lines	-9.47167
▁complet	-9.47504
▁actual	-9.47627
away	-9.47874
▁Lake	-9.47878
▁primar	-9.48028
▁wh	-9.4807
▁broadcast	-9.48106
▁38	-9.48295
▁distance	-9.48497
▁Battle	-9.48498
▁collection	-9.48529
▁sequence	-9.48575
ota	-9.4862
msel	-9.48742
▁throw	-9.48904
▁money	-9.48982
▁link	-9.4908
▁Wi	-9.49386
▁Wood	-9.4944
▁Council	-9.49474
▁cyclone	-9.495
▁education	-9.49514
▁employ	-9.49538
▁leav	-9.49677
▁Over	-9.49934
▁Angel	-9.50042
▁states	-9.50469
▁Jewish	-9.50497
▁rare	-9.50503
▁1950	-9.50513
upon	-9.50657
▁traditional	-9.50938
▁Galveston	-9.50962
▁try	-9.50981
▁question	-9.50984
▁color	-9.51738
house	-9.5186
▁parent	-9.52001
▁decade	-9.52003
head	-9.52013
▁So	-9.52132
▁mission	-9.52183
▁Final	-9.52233
▁ran	-9.52346
▁breed	-9.52375
▁require	-9.52453
▁organization	-9.52536
▁express	-9.52547
▁meaning	-9.52645
▁minor	-9.52781
▁occur	-9.52801
▁California	-9.52823
▁pair	-9.52921
▁lyrics	-9.52927
▁situation	-9.53047
▁Earth	-9.53059
▁dead	-9.53082
▁brief	-9.53333
▁course	-9.53442
ester	-9.53472
▁traffic	-9.53549
▁sister	-9.53553
▁effective	-9.53584
▁tradition	-9.53589
ways	-9.53715
▁historical	-9.53917
▁Under	-9.54051
▁universit	-9.54067
▁If	-9.54184
▁Co	-9.54312
▁f	-9.54496
▁marriage	-9.54606
▁Villa	-9.54688
▁Scot	-9.54717
▁keep	-9.54731
▁Latin	-9.54785
▁Ross	-9.55156
▁Alice	-9.55171
▁plant	-9.55326
▁singer	-9.55386
▁Chicago	-9.55576
▁statu	-9.55627
▁officers	-9.55815
▁198	-9.55962
▁gods	-9.56002
thing	-9.56147
▁parts	-9.56159
▁defence	-9.56178
▁job	-9.56185
▁1940	-9.56212
▁fans	-9.56238
▁natural	-9.56432
ure	-9.56616
▁sing	-9.56626
aught	-9.56677
▁miss	-9.56678
▁newspaper	-9.56713
▁historian	-9.56751
▁sexual	-9.56777
▁colon	-9.56977
▁edge	-9.57012
▁Act	-9.57246
▁Service	-9.57259
▁batter	-9.57312
▁upper	-9.57328
▁overall	-9.57406
▁African	-9.57509
▁Don	-9.57688
▁75	-9.57719
▁Second	-9.57791
▁request	-9.57793
▁painting	-9.57913
▁metal	-9.57981
▁Nation	-9.58004
▁Simon	-9.5802
▁self	-9.58059
▁400	-9.58128
▁tournament	-9.58335
▁border	-9.58336
▁Alkan	-9.58345
▁1930	-9.58368
▁train	-9.58416
▁variet	-9.58656
f	-9.58867
▁beat	-9.58874
▁rapid	-9.58887
▁theme	-9.58901
▁1993	-9.58966
▁Up	-9.5919
▁whole	-9.59252
▁our	-9.59289
▁Record	-9.59347
▁abilit	-9.59348
▁tri	-9.5935
▁protest	-9.59419
▁Liverpool	-9.59431
▁Christmas	-9.59431
▁serious	-9.59431
▁Nixon	-9.59435
aylor	-9.59504
▁estimat	-9.59527
▁High	-9.59634
▁almo	-9.59767
▁El	-9.59923
▁Somers	-9.60105
▁sell	-9.6019
▁Live	-9.60197
achel	-9.60298
▁tail	-9.6033
▁70	-9.60392
▁adopt	-9.60501
▁Texas	-9.60539
▁script	-9.60539
▁moment	-9.60544
▁defend	-9.60649
▁Lady	-9.60734
▁Mosley	-9.61098
▁got	-9.611
▁Italian	-9.61114
▁Tropic	-9.61411
▁speak	-9.61424
▁Jane	-9.61564
▁Republic	-9.61609
▁key	-9.61679
▁Fowle	-9.61679
▁mountain	-9.61743
▁active	-9.61766
▁rating	-9.62071
ter	-9.62143
▁conflict	-9.62224
▁Squadron	-9.62224
▁native	-9.62225
▁temple	-9.62226
▁Three	-9.62236
▁Carolina	-9.6226
▁1996	-9.62322
▁Despi	-9.62418
▁press	-9.62515
▁300	-9.62585
▁cathedral	-9.62799
▁Tour	-9.62811
▁Of	-9.62879
▁avoid	-9.6289
▁pay	-9.62901
▁Fort	-9.62904
▁names	-9.6299
F	-9.63068
▁90	-9.63112
▁drive	-9.63126
▁potential	-9.63364
▁via	-9.63372
▁health	-9.63381
▁slight	-9.63383
stein	-9.63595
▁nation	-9.63663
▁g	-9.63666
▁marked	-9.63908
▁dollar	-9.6394
▁Minne	-9.64023
co	-9.6411
▁guitar	-9.6428
▁Paris	-9.64458
▁Like	-9.64525
▁meant	-9.64568
it	-9.64597
▁Brita	-9.64618
ng	-9.6468
den	-9.64742
▁god	-9.64802
▁Storm	-9.64996
▁frequent	-9.65098
▁Infantry	-9.651
▁husband	-9.65105
▁demand	-9.65107
D	-9.65123
yet	-9.65123
▁girl	-9.65135
▁runs	-9.6514
▁seat	-9.65162
▁Soviet	-9.65224
▁speed	-9.65304
ant	-9.65314
▁wood	-9.65355
▁method	-9.65362
▁rais	-9.65558
▁flow	-9.65608
▁requir	-9.6568
▁expand	-9.65683
▁headquarter	-9.65683
▁scale	-9.65768
▁presen	-9.65774
▁qualit	-9.65789
larger	-9.65996
▁Frank	-9.66142
▁dark	-9.66218
▁annual	-9.66245
▁College	-9.66292
▁Series	-9.66306
▁fell	-9.66314
▁Virginia	-9.66415
98	-9.66424
▁36	-9.66439
▁ending	-9.66551
▁reduc	-9.66556
▁Rosebery	-9.66863
▁Club	-9.66863
▁search	-9.66875
▁Anderson	-9.66879
▁wound	-9.66893
▁propert	-9.67098
▁era	-9.67292
▁couple	-9.67293
▁concept	-9.67403
ful	-9.67403
▁piano	-9.67458
▁complex	-9.6746
▁talk	-9.67466
▁Open	-9.67501
well	-9.67617
▁value	-9.67668
thus	-9.67755
▁Beyonc	-9.6778
▁makes	-9.67824
C	-9.67826
▁Centr	-9.6787
▁Major	-9.68057
▁morning	-9.68067
▁weapon	-9.68078
▁birth	-9.68151
▁access	-9.68242
▁aid	-9.68302
tory	-9.68406
giving	-9.68409
▁replace	-9.68498
▁elect	-9.6856
▁Los	-9.68589
▁stat	-9.68639
▁Ottoman	-9.68663
▁numero	-9.68689
▁settlement	-9.68696
▁1997	-9.68719
iami	-9.68772
▁copie	-9.68807
▁captur	-9.68898
▁party	-9.69004
▁commission	-9.69027
▁Bill	-9.6903
▁185	-9.69161
▁enjoy	-9.69266
▁Museum	-9.69266
▁Time	-9.69293
▁Jackson	-9.69308
▁something	-9.69357
▁measure	-9.69369
▁safe	-9.69408
▁Prince	-9.69586
▁bridge	-9.69767
▁collect	-9.69778
▁en	-9.69827
▁Ca	-9.69831
▁target	-9.69875
▁brigade	-9.69875
▁fill	-9.69884
▁kind	-9.69909
▁sentence	-9.69921
▁abandon	-9.69971
▁mount	-9.70014
▁plot	-9.70288
▁hundred	-9.70324
▁compani	-9.70367
▁strength	-9.70462
▁Through	-9.70488
▁impact	-9.70489
▁Their	-9.70502
▁adult	-9.70566
▁sub	-9.70567
▁refus	-9.70697
▁nuclea	-9.70749
▁Dr	-9.70769
▁lot	-9.70815
▁declar	-9.70889
▁Pennsylvania	-9.70896
▁Cross	-9.70955
▁reject	-9.71052
▁count	-9.7106
▁park	-9.71102
▁disease	-9.71106
▁recover	-9.71125
▁aspect	-9.71129
▁confirm	-9.7117
pole	-9.71174
▁compos	-9.71213
▁portion	-9.71216
▁Chris	-9.7125
▁artillery	-9.71384
▁wor	-9.71399
▁severe	-9.71456
▁majorit	-9.71467
▁propos	-9.71515
▁wave	-9.7159
▁enem	-9.71747
▁powerful	-9.71749
▁los	-9.72011
▁dedicat	-9.7202
▁vocals	-9.72063
▁Age	-9.72204
▁Sir	-9.72254
▁fruit	-9.72262
▁percent	-9.72332
▁responsibl	-9.72352
▁bill	-9.72359
▁Queen	-9.72363
▁Green	-9.7239
▁paper	-9.72393
▁Helm	-9.72446
▁purpose	-9.72474
▁Chart	-9.72599
▁normal	-9.72655
▁China	-9.72682
▁inside	-9.72876
▁Football	-9.72982
▁temperature	-9.72982
▁edition	-9.73017
▁Both	-9.73119
▁Blue	-9.73155
▁Hot	-9.73234
▁don	-9.73392
done	-9.73424
▁marri	-9.73483
▁feel	-9.73515
fore	-9.73519
▁Department	-9.73613
▁advantage	-9.73614
▁degree	-9.73616
▁reception	-9.7362
▁camp	-9.73628
▁content	-9.73681
ground	-9.73769
▁Court	-9.73802
▁Brad	-9.73811
▁bird	-9.73852
▁direction	-9.73929
▁blue	-9.73932
▁extra	-9.74121
▁touchdown	-9.74251
▁middle	-9.74257
▁fort	-9.74302
▁genu	-9.74389
▁countr	-9.74543
xenon	-9.74565
play	-9.74747
▁blood	-9.74885
▁Turk	-9.74885
▁Braathen	-9.74891
▁Louis	-9.74906
▁pick	-9.74911
▁Center	-9.74918
▁promotion	-9.7497
usch	-9.74996
▁widely	-9.75028
▁physical	-9.7503
▁Land	-9.75119
▁movie	-9.75156
▁true	-9.75344
que	-9.75364
▁defense	-9.75537
▁relief	-9.75538
▁Six	-9.75546
▁Young	-9.75617
▁1994	-9.75667
▁factor	-9.7571
▁performances	-9.75795
▁discuss	-9.75832
▁document	-9.75872
▁33	-9.76027
▁build	-9.76044
▁progress	-9.7607
▁Corps	-9.76095
▁Ver	-9.76151
▁honor	-9.76187
▁Egyptian	-9.76194
▁sixth	-9.76216
▁Highway	-9.76221
▁publication	-9.7635
▁sense	-9.76399
▁trial	-9.76418
▁engine	-9.76544
▁inspir	-9.76778
▁Van	-9.76785
▁landing	-9.76822
▁extreme	-9.76855
ward	-9.7697
ownsend	-9.76998
▁shell	-9.77011
▁box	-9.77142
fensive	-9.77156
án	-9.77282
▁observ	-9.77306
▁188	-9.77355
▁Marine	-9.77403
▁legal	-9.77455
▁Meyerbeer	-9.77497
▁Shiva	-9.77508
▁cricket	-9.77569
▁contemporary	-9.77654
▁Yue	-9.77706
▁ultimate	-9.77719
drew	-9.77725
▁indicate	-9.7782
▁text	-9.77932
▁planet	-9.77941
▁Smith	-9.78084
▁reflect	-9.78104
▁Games	-9.78132
▁screen	-9.78136
▁financial	-9.7816
▁street	-9.78167
▁managed	-9.78176
▁weaken	-9.78201
▁Post	-9.78341
▁facilit	-9.78373
▁Li	-9.78438
▁Boy	-9.78712
▁chang	-9.78786
▁Long	-9.78795
▁cougar	-9.78826
▁brown	-9.78839
truck	-9.78852
▁opera	-9.78863
▁northeast	-9.78864
▁Horse	-9.78879
▁books	-9.78954
▁worker	-9.78993
▁32	-9.78997
ain	-9.79047
▁fac	-9.79053
▁Operation	-9.79073
▁eye	-9.79086
▁friends	-9.79086
TV	-9.79119
▁comed	-9.79236
▁murder	-9.79238
ington	-9.79288
▁Academ	-9.79357
▁39	-9.79432
▁Nicole	-9.79453
▁opportunit	-9.79504
▁attention	-9.7952
▁carry	-9.79553
▁background	-9.79553
▁Cr	-9.79789
▁argu	-9.79914
ach	-9.80141
▁Government	-9.80173
▁technique	-9.80173
▁matter	-9.80191
▁reaction	-9.80193
▁Society	-9.80204
▁sex	-9.80209
▁rise	-9.803
com	-9.80476
▁decline	-9.80483
▁150	-9.8063
▁Hamel	-9.80862
▁assault	-9.80863
▁coin	-9.81014
▁leader	-9.81073
▁sport	-9.81379
ough	-9.81431
▁specimen	-9.81538
▁website	-9.81538
▁vehicle	-9.8154
▁crowd	-9.81542
▁escape	-9.81579
▁47	-9.8165
ir	-9.81657
▁Johnson	-9.81714
▁thick	-9.81723
▁officer	-9.82147
▁oppos	-9.82189
▁primari	-9.82214
▁respond	-9.82224
▁appeal	-9.82228
▁square	-9.82228
▁soundtrack	-9.82228
▁task	-9.82235
▁surrounding	-9.82283
▁cultural	-9.82285
▁Tess	-9.82307
▁rough	-9.82311
▁Home	-9.82395
▁fiction	-9.82785
▁offensive	-9.82902
▁thousand	-9.82922
▁Portugues	-9.82923
▁volume	-9.82926
▁Edward	-9.82929
▁Little	-9.82975
▁transferr	-9.83089
▁appearances	-9.8314
86	-9.83254
▁hop	-9.8327
▁intens	-9.83526
▁Captain	-9.83622
▁hero	-9.83649
▁hospital	-9.83671
▁colour	-9.83682
▁winter	-9.83687
▁simpl	-9.83844
BA	-9.83856
▁AI	-9.84025
time	-9.84114
▁estimate	-9.84131
▁Fey	-9.84219
▁Mr	-9.84227
▁infantry	-9.84332
▁Civil	-9.84339
▁Spain	-9.8434
▁prominent	-9.84356
▁Apple	-9.84365
where	-9.84398
▁composition	-9.844
▁independent	-9.84467
▁surviv	-9.84484
▁twent	-9.84504
▁contrast	-9.84531
am	-9.84577
panish	-9.84612
▁wind	-9.84663
▁formation	-9.84664
as	-9.84831
▁canno	-9.84913
▁matche	-9.84948
▁Ocean	-9.85036
▁session	-9.85037
▁Mountain	-9.85055
▁Group	-9.85061
▁operate	-9.85203
▁bad	-9.85413
▁board	-9.85466
▁northwest	-9.85749
▁science	-9.8575
▁Welsh	-9.8575
▁Tintin	-9.8575
▁reign	-9.85751
▁extensive	-9.8576
▁Lord	-9.86037
▁Middle	-9.86043
▁wing	-9.86206
▁object	-9.86297
b	-9.86323
▁portray	-9.86334
while	-9.8638
▁Empire	-9.86469
▁window	-9.8647
▁retain	-9.86471
▁operat	-9.86479
▁Ha	-9.86532
▁mile	-9.86616
▁assist	-9.86648
▁nest	-9.86723
▁sales	-9.86897
▁county	-9.86952
▁arrive	-9.8699
kovic	-9.87002
Mont	-9.87049
▁threat	-9.87132
▁archaeolog	-9.87187
▁Varanasi	-9.87194
▁Nesbitt	-9.87194
▁description	-9.87203
▁Lock	-9.87217
▁succeed	-9.87219
▁Eva	-9.87221
▁praise	-9.87279
▁Balti	-9.87332
▁42	-9.87334
▁Ceres	-9.87444
be	-9.87481
▁controll	-9.87601
na	-9.87649
▁function	-9.87689
▁Though	-9.877
▁push	-9.87716
▁reviewer	-9.87901
▁Odaenath	-9.87924
▁domestic	-9.87924
▁captain	-9.87924
▁Sarnia	-9.87925
▁casualties	-9.87936
▁wear	-9.87947
▁acid	-9.87964
▁credit	-9.88009
▁conclud	-9.88055
ville	-9.88105
▁hair	-9.88307
▁Israel	-9.88357
▁183	-9.88392
▁economic	-9.88416
▁sustain	-9.88471
▁hands	-9.88599
▁except	-9.88599
▁Master	-9.88648
▁risk	-9.88659
▁narrow	-9.8866
▁memor	-9.88665
▁pilot	-9.88668
▁Not	-9.88687
▁tracks	-9.88768
▁bar	-9.88826
wo	-9.88867
ble	-9.88936
▁Gold	-9.89048
▁draft	-9.89272
▁spread	-9.89277
▁championship	-9.89406
▁Engineer	-9.89413
▁1920	-9.89437
▁agent	-9.89457
▁Manch	-9.89596
▁computer	-9.89606
▁basi	-9.89654
▁becom	-9.8975
ski	-9.89815
▁Illinois	-9.89834
▁litera	-9.89855
▁pop	-9.90034
▁Simpson	-9.90146
▁Perón	-9.90147
▁entrance	-9.90154
▁phase	-9.9029
ncient	-9.90297
▁alone	-9.90413
L	-9.90432
▁viewers	-9.90438
▁associat	-9.90584
▁dat	-9.90643
▁standing	-9.90674
▁Wilhelm	-9.90898
▁yellow	-9.90898
▁Thunderbird	-9.90898
▁kakapo	-9.90898
▁chapter	-9.909
▁apparent	-9.90908
▁Week	-9.9091
▁item	-9.90986
▁am	-9.91048
▁Pop	-9.9118
▁44	-9.91227
laba	-9.91234
nough	-9.91248
▁Stone	-9.91298
▁jump	-9.91443
▁Free	-9.91533
▁films	-9.91534
▁Bob	-9.91558
▁habitat	-9.91603
▁convert	-9.91655
▁monument	-9.91655
▁Washington	-9.91655
▁opponent	-9.91655
▁cadmi	-9.91656
wide	-9.91687
▁happen	-9.91695
▁delay	-9.91718
▁partial	-9.91766
▁Del	-9.91782
▁stop	-9.91788
▁carri	-9.91926
▁Har	-9.92122
▁Bri	-9.9219
▁Tom	-9.92195
▁transit	-9.92306
▁feeling	-9.92333
▁Bowl	-9.92359
▁inter	-9.92389
▁Omaha	-9.92419
▁contact	-9.92419
▁combat	-9.92433
▁1988	-9.9246
89	-9.92516
ta	-9.9252
▁Or	-9.9256
▁SR	-9.92759
▁Torre	-9.92768
▁Common	-9.92793
▁inning	-9.92985
▁Town	-9.93033
▁necessar	-9.93188
▁Joseph	-9.93188
▁flank	-9.93189
▁rainfall	-9.9319
▁pattern	-9.93192
▁failure	-9.93203
▁energ	-9.93421
go	-9.93533
▁Easter	-9.93769
ux	-9.93794
▁path	-9.93835
▁fish	-9.93852
▁attract	-9.9388
wise	-9.93893
▁Fleet	-9.93964
▁starling	-9.93985
▁201	-9.94125
▁twi	-9.94252
▁themes	-9.94302
▁royal	-9.94309
▁possibl	-9.94392
15	-9.94474
▁expect	-9.94563
I	-9.94662
▁51	-9.94685
▁Mean	-9.94713
99	-9.94743
▁Assembl	-9.94744
▁chief	-9.94745
▁guest	-9.94747
▁Mogadish	-9.94752
▁v	-9.94772
▁Innis	-9.94779
▁stand	-9.94937
▁society	-9.94941
ate	-9.94966
▁core	-9.94988
▁institution	-9.9508
▁acre	-9.95211
dom	-9.95299
▁Kent	-9.95336
▁label	-9.95367
▁pai	-9.95409
▁Mik	-9.95509
▁athlete	-9.95532
▁McCall	-9.95533
▁Airport	-9.95539
▁district	-9.95546
▁rear	-9.95593
kare	-9.95664
▁k	-9.95726
▁Art	-9.95809
▁your	-9.95857
▁Un	-9.95958
▁Andrew	-9.96043
ture	-9.96071
▁onto	-9.96189
▁student	-9.96255
▁unique	-9.96331
▁religion	-9.96339
▁semi	-9.96367
▁storyline	-9.9638
▁occupie	-9.96409
kept	-9.96442
ember	-9.96493
▁lane	-9.96759
▁Command	-9.96882
▁castle	-9.96919
▁Way	-9.96935
▁Cole	-9.96991
▁withdraw	-9.97033
▁occasional	-9.97078
▁Forest	-9.97087
me	-9.97092
▁PlayStation	-9.97125
▁Jupiter	-9.97126
▁Water	-9.97189
▁engineer	-9.972
▁secret	-9.97295
rew	-9.97354
600	-9.97403
▁Sara	-9.97464
▁sets	-9.97474
▁vote	-9.97539
▁care	-9.97553
ell	-9.97584
▁weight	-9.97733
▁equip	-9.97905
▁compound	-9.97932
▁depth	-9.97932
▁product	-9.9796
▁Valley	-9.9798
▁management	-9.97993
stream	-9.98096
▁comic	-9.98122
▁maximu	-9.98332
old	-9.98468
▁Kh	-9.98616
▁Line	-9.98659
▁consecutive	-9.98745
▁Djed	-9.98745
delphi	-9.98747
▁Greek	-9.98748
▁Four	-9.9875
▁floor	-9.98756
▁nomination	-9.98803
▁museum	-9.98812
▁orbit	-9.98813
ler	-9.98934
▁reduce	-9.99166
▁block	-9.993
▁48	-9.99325
▁master	-9.99462
▁fung	-9.99479
▁Sky	-9.99499
kg	-9.99547
▁vessel	-9.99565
▁DVD	-9.99565
▁negative	-9.99571
▁Big	-9.99574
▁permanent	-9.99578
▁ne	-9.99584
▁criticiz	-9.99584
▁doing	-9.99588
▁heart	-9.99649
▁oil	-9.99754
white	-9.99784
▁mouth	-9.99818
▁chance	-9.99907
▁armor	-9.99928
▁store	-9.99962
▁multi	-9.99966
▁fast	-10.0008
▁forc	-10.0022
▁designat	-10.0032
▁Go	-10.0036
ka	-10.0039
▁obtain	-10.0039
▁airport	-10.0041
▁opinion	-10.0041
▁kick	-10.0043
▁creation	-10.0056
to	-10.0058
▁inch	-10.0061
▁52	-10.0064
▁origin	-10.0071
laid	-10.0092
▁Gar	-10.0104
▁iron	-10.0108
▁buri	-10.0116
▁Science	-10.0122
all	-10.0123
▁Institute	-10.0123
hood	-10.0124
▁executive	-10.0124
▁else	-10.0127
▁height	-10.0127
▁threaten	-10.013
eval	-10.0131
▁die	-10.0159
▁34	-10.0164
▁Dam	-10.0175
▁unknow	-10.0175
▁encounter	-10.0206
▁civil	-10.0207
▁dissipat	-10.0209
▁raid	-10.021
▁Jam	-10.0211
▁wild	-10.0212
▁achiev	-10.0249
▁seek	-10.0254
▁Abu	-10.0255
▁refer	-10.0269
▁More	-10.0275
▁SAFE	-10.0291
▁BBC	-10.0295
▁stopp	-10.0297
▁tank	-10.0298
▁fear	-10.0298
1987	-10.0302
▁Ra	-10.0304
▁Bir	-10.0312
▁securit	-10.0318
▁pro	-10.0342
▁bowl	-10.0345
▁tie	-10.0349
▁rescue	-10.0354
▁purchase	-10.0369
▁knowledge	-10.0377
▁Minister	-10.0377
▁invasion	-10.0377
▁weather	-10.0379
▁passe	-10.038
▁Martin	-10.0382
▁association	-10.0383
▁Michi	-10.0398
▁raise	-10.0404
▁Due	-10.0412
▁titles	-10.0413
▁desire	-10.0416
▁Child	-10.0429
▁Croatia	-10.0445
▁feed	-10.0457
▁types	-10.0461
▁respect	-10.0462
▁council	-10.0463
▁peace	-10.0464
▁Further	-10.0464
▁sculpture	-10.0465
▁famous	-10.0466
▁miner	-10.0468
▁visual	-10.0469
▁treatment	-10.047
▁freeway	-10.0471
▁campus	-10.0473
▁1972	-10.0478
▁challenge	-10.0483
▁bid	-10.0487
▁statement	-10.0492
▁combin	-10.0493
ner	-10.0496
▁180	-10.0499
da	-10.0504
▁finding	-10.0515
▁spot	-10.0519
bodies	-10.0536
▁Der	-10.0536
▁analysi	-10.0543
▁perfect	-10.0546
▁technolog	-10.0555
▁1985	-10.0556
▁Video	-10.0557
▁channel	-10.0557
▁teacher	-10.0565
▁shift	-10.0567
▁Tenn	-10.0574
HMS	-10.0576
▁teaching	-10.059
▁37	-10.0599
▁Phila	-10.06
▁ceremon	-10.0623
▁instrument	-10.0624
▁Cardiff	-10.0638
▁recall	-10.0638
▁Barrow	-10.0639
▁depend	-10.0641
▁Mo	-10.0643
▁49	-10.0667
▁fine	-10.0668
▁destroyer	-10.0668
▁determin	-10.0672
▁fox	-10.0675
▁dropp	-10.0699
▁spend	-10.0703
▁End	-10.0704
▁Even	-10.0715
▁federal	-10.0726
▁arrest	-10.0726
▁Congress	-10.0726
▁Keats	-10.0726
▁gradual	-10.0727
▁landfall	-10.0727
▁criticism	-10.0735
▁editor	-10.0736
▁1944	-10.0736
▁BC	-10.0738
port	-10.074
▁trip	-10.075
▁Never	-10.0756
▁Bridge	-10.0756
▁secure	-10.0757
▁adapt	-10.0768
shore	-10.0813
served	-10.0815
▁kilometre	-10.0815
▁possibilit	-10.0815
▁civilian	-10.0817
B	-10.082
▁firm	-10.0824
▁strengthen	-10.0824
▁Premier	-10.0825
▁187	-10.0827
craft	-10.0827
ackground	-10.0835
▁Severa	-10.0843
▁organiz	-10.0845
▁Ka	-10.085
▁achieve	-10.0854
▁foundation	-10.0855
▁counter	-10.0857
▁Morris	-10.0861
▁Gord	-10.0862
▁retir	-10.0863
▁big	-10.0891
▁Album	-10.0905
▁Dutch	-10.0905
▁budget	-10.0906
▁Additional	-10.0907
▁solo	-10.0909
▁divine	-10.0915
▁Max	-10.0916
ting	-10.0918
ily	-10.0921
▁Ever	-10.0925
▁spring	-10.0933
▁promote	-10.094
▁Polis	-10.0941
▁agreement	-10.0944
idden	-10.0956
▁Steve	-10.0965
▁Good	-10.0973
▁killing	-10.0974
▁Op	-10.0982
ur	-10.0983
▁dance	-10.0995
der	-10.0996
▁Festival	-10.0996
▁actress	-10.0996
▁Nathan	-10.0998
▁belief	-10.1
▁Ital	-10.1005
▁connection	-10.1009
▁improve	-10.1013
les	-10.1015
▁rush	-10.1025
▁assembl	-10.1025
▁foreign	-10.1034
ke	-10.1048
ated	-10.105
▁120	-10.106
▁multiple	-10.1078
▁college	-10.1088
▁Heart	-10.1093
▁observation	-10.1095
▁zone	-10.1103
▁data	-10.1105
onference	-10.1115
▁boy	-10.1126
▁sides	-10.1129
ns	-10.1135
▁supplie	-10.1178
▁lives	-10.118
▁restaurant	-10.1181
▁nucleus	-10.1181
▁simple	-10.1182
▁highlight	-10.1182
▁arrangement	-10.1183
▁candidate	-10.1184
▁newly	-10.1185
▁Zho	-10.1189
▁Haven	-10.119
▁Slam	-10.1192
theles	-10.1195
▁repair	-10.1195
▁Original	-10.1222
▁Rome	-10.1227
▁dai	-10.1231
▁prepared	-10.1245
▁Jim	-10.1249
▁clean	-10.1252
▁Ali	-10.126
▁send	-10.1262
▁Si	-10.1263
▁victim	-10.1274
▁Gulf	-10.1274
▁inscription	-10.1277
▁Lewis	-10.1279
▁sail	-10.1283
▁1981	-10.1283
▁64	-10.1283
▁difference	-10.1284
back	-10.129
▁Mario	-10.1293
▁la	-10.1298
▁130	-10.13
stone	-10.1304
▁advanc	-10.1309
▁indicat	-10.1314
▁65	-10.1322
▁En	-10.1339
▁transfer	-10.1348
▁Roll	-10.1357
▁recommend	-10.1364
yond	-10.1365
▁Revolution	-10.1369
▁Among	-10.1369
▁Production	-10.1369
▁divid	-10.1369
▁crime	-10.137
▁combination	-10.1372
▁option	-10.1372
▁setting	-10.1375
▁passage	-10.1379
▁ring	-10.1387
▁Temple	-10.1388
▁remark	-10.1393
▁Mont	-10.1395
▁here	-10.1399
M	-10.1404
▁Ode	-10.1404
▁Jain	-10.1426
▁incident	-10.1439
▁Can	-10.1446
azy	-10.1449
▁tho	-10.1463
▁Entertainment	-10.1464
▁People	-10.1464
▁article	-10.1464
▁Oxford	-10.1464
▁1939	-10.1465
▁Girl	-10.1466
▁Turner	-10.1467
▁Coast	-10.1468
▁frame	-10.1472
▁Russian	-10.1473
▁favor	-10.1479
▁bottom	-10.148
do	-10.1482
▁contribut	-10.1486
▁USA	-10.1487
sis	-10.1489
▁supply	-10.1496
▁print	-10.1497
▁debate	-10.1501
▁vocal	-10.1507
▁Review	-10.1508
▁outer	-10.1519
▁paint	-10.1519
hann	-10.1528
▁prov	-10.1549
47	-10.1553
▁Field	-10.1555
▁Do	-10.1556
▁Bishop	-10.156
▁hotel	-10.1561
▁unlike	-10.1563
▁intersection	-10.1563
▁objective	-10.1565
▁digital	-10.1566
▁skill	-10.1572
▁1942	-10.1574
board	-10.1578
▁damag	-10.1592
▁hope	-10.1595
▁fur	-10.1599
▁Bois	-10.16
▁torpedo	-10.1608
▁Commission	-10.1634
▁southwest	-10.1636
▁walk	-10.1637
▁schedule	-10.1637
▁53	-10.164
▁straight	-10.165
shire	-10.1651
▁Joe	-10.1654
▁silver	-10.1654
▁Governor	-10.1657
▁Fantas	-10.1659
▁Director	-10.1659
▁1918	-10.1661
▁committee	-10.1665
▁Ke	-10.1683
▁drawing	-10.1697
▁Fox	-10.17
▁Studios	-10.1714
▁Juan	-10.1736
▁verse	-10.1743
▁Bart	-10.1747
▁Muslim	-10.1755
▁antimony	-10.1755
▁expedition	-10.1755
▁Life	-10.1755
▁genre	-10.1755
▁promise	-10.1755
▁message	-10.1756
▁egg	-10.1758
venue	-10.1758
▁cave	-10.176
▁Area	-10.1763
▁1968	-10.1764
▁penalt	-10.1765
▁prove	-10.1768
12	-10.1772
▁page	-10.1775
▁beach	-10.1776
▁aim	-10.1786
▁700	-10.1786
▁survive	-10.1807
á	-10.1809
▁fit	-10.1817
ro	-10.1817
▁branch	-10.1828
▁Dot	-10.1833
▁warm	-10.1839
▁nominat	-10.184
▁determine	-10.1845
▁green	-10.185
▁dress	-10.1853
▁Evita	-10.1854
▁What	-10.1854
▁hunt	-10.1854
▁spore	-10.1855
▁Magazine	-10.1855
▁Atlant	-10.1855
▁centur	-10.1857
▁tall	-10.1859
▁naval	-10.186
▁camera	-10.1863
▁stations	-10.1864
▁1975	-10.1866
▁starr	-10.1868
▁Player	-10.1882
▁carrie	-10.1889
▁notable	-10.1912
▁spac	-10.1933
hou	-10.1941
▁technical	-10.1954
▁rain	-10.1957
▁interaction	-10.1957
▁engage	-10.1958
▁generation	-10.1958
▁weak	-10.1961
▁layer	-10.1968
▁batsm	-10.197
▁policy	-10.1979
p	-10.1985
▁Yan	-10.1988
▁du	-10.1991
▁Out	-10.1998
▁participat	-10.2019
var	-10.2022
iro	-10.203
▁Williams	-10.2032
▁independen	-10.2035
▁super	-10.2035
▁GA	-10.2044
▁broad	-10.2047
▁Crown	-10.2052
istrict	-10.2053
▁principal	-10.2055
▁mushroom	-10.2055
▁retreat	-10.2055
▁unusual	-10.2056
▁wait	-10.2056
▁sector	-10.2056
▁concret	-10.206
▁motion	-10.2061
▁Liu	-10.2063
▁Kang	-10.2064
78	-10.2072
rang	-10.2072
▁Commander	-10.2073
▁reform	-10.2074
▁Toda	-10.2075
▁struggle	-10.2078
inkel	-10.2092
▁800	-10.2092
▁argue	-10.2095
▁Bon	-10.2127
▁improv	-10.2131
▁introduce	-10.2143
sses	-10.215
burn	-10.2155
▁choice	-10.2156
▁senior	-10.2157
▁Jurchen	-10.2157
▁Project	-10.2157
▁Single	-10.2157
▁emperor	-10.2159
▁Power	-10.2159
▁cool	-10.216
▁creator	-10.2164
growth	-10.2172
ina	-10.2173
water	-10.2175
▁easi	-10.2176
▁billion	-10.221
65	-10.2215
older	-10.2215
▁inform	-10.2221
▁boundar	-10.2234
ger	-10.2238
▁43	-10.2245
▁Se	-10.2253
▁drama	-10.226
▁protagonist	-10.226
▁chorus	-10.226
▁pull	-10.226
▁Development	-10.2261
▁Board	-10.2261
▁communication	-10.2261
▁Summer	-10.2261
▁nor	-10.2266
▁56	-10.2272
▁nothing	-10.2275
id	-10.2284
▁arrival	-10.2287
▁folk	-10.2302
▁mind	-10.2304
bury	-10.2305
▁Pol	-10.2311
▁Band	-10.2312
▁Lee	-10.2318
▁formal	-10.2323
▁System	-10.2328
▁fresh	-10.2329
▁ritual	-10.2338
▁Charl	-10.2341
▁strike	-10.235
▁41	-10.2353
▁Ram	-10.2353
▁dur	-10.2359
▁essential	-10.2364
▁platform	-10.2365
▁Track	-10.2368
▁soil	-10.2369
▁vision	-10.2371
▁Theatr	-10.2372
▁guide	-10.2376
▁guard	-10.2376
▁Radio	-10.2377
▁Baby	-10.2378
▁survey	-10.2379
▁graph	-10.2385
91	-10.239
▁Sa	-10.2392
yson	-10.2393
lin	-10.2425
▁entr	-10.2427
▁skin	-10.2443
ular	-10.245
▁Book	-10.2453
spread	-10.2453
▁address	-10.2463
▁clos	-10.2463
▁Egypt	-10.2468
▁MacLeod	-10.247
▁administration	-10.247
▁representative	-10.247
▁1936	-10.2472
▁fuel	-10.2475
▁1919	-10.2477
▁identifi	-10.2478
▁priest	-10.2478
▁cruiser	-10.2479
TC	-10.249
▁moral	-10.2494
ster	-10.2524
▁MD	-10.2538
▁charter	-10.2555
▁shoot	-10.2556
▁biograph	-10.2558
▁Asia	-10.2558
▁holding	-10.2564
▁Daniel	-10.2571
▁Admiral	-10.2576
▁Athletic	-10.2576
▁passenger	-10.2576
▁violence	-10.2577
24	-10.258
▁Constantin	-10.259
▁parallel	-10.2591
▁Brook	-10.2602
▁Nin	-10.2603
▁Anthon	-10.2619
ti	-10.2626
▁NC	-10.2633
up	-10.2641
▁Rio	-10.265
▁54	-10.2661
▁heard	-10.2679
▁Cardinal	-10.2679
▁airline	-10.268
▁Douglas	-10.2683
▁atmosphere	-10.2683
▁province	-10.2683
▁remnant	-10.2684
▁earthquake	-10.2684
▁renam	-10.2685
▁exclusive	-10.2686
▁Walter	-10.2687
▁fashion	-10.2687
▁possession	-10.2688
▁massive	-10.2692
▁roof	-10.2692
▁proposal	-10.2703
▁promot	-10.2708
▁bit	-10.2724
▁settler	-10.2727
▁sole	-10.2729
▁basic	-10.2735
▁tend	-10.2749
▁gas	-10.2759
efore	-10.2772
▁Par	-10.2775
▁rebel	-10.2775
▁Christ	-10.2778
▁leaders	-10.2778
▁surround	-10.2784
▁column	-10.2792
▁Committee	-10.2792
▁unsuccessful	-10.2792
▁Hornung	-10.2792
▁submarine	-10.2792
▁Anonymous	-10.2792
▁basket	-10.2796
▁fellow	-10.2796
▁chapel	-10.2796
▁57	-10.2799
▁perhap	-10.28
▁dut	-10.2801
▁Golden	-10.2802
▁protection	-10.2804
▁Lo	-10.2807
▁rail	-10.2808
▁impress	-10.2809
▁spoke	-10.2812
▁rich	-10.2822
▁homes	-10.2839
▁basin	-10.285
ade	-10.2853
▁Somali	-10.2854
▁Real	-10.2883
▁rose	-10.2894
▁govern	-10.2896
▁Sho	-10.2899
▁Caribbean	-10.2902
▁Lieutenant	-10.2902
▁Democrat	-10.2903
▁wedding	-10.2904
▁Sunday	-10.2906
▁Milit	-10.2906
31	-10.2907
▁AML	-10.2908
▁fan	-10.2915
▁1914	-10.2923
▁whe	-10.2924
▁Prime	-10.2928
▁Mega	-10.2949
▁equal	-10.2952
▁Bond	-10.2959
▁table	-10.2963
▁FA	-10.2966
▁reserve	-10.2978
▁recogniz	-10.2986
▁regime	-10.2988
▁trail	-10.2991
▁resign	-10.301
▁decide	-10.3011
▁attach	-10.3012
▁Chelsea	-10.3013
▁sufficient	-10.3013
▁eleven	-10.3013
▁estate	-10.3014
▁household	-10.3014
▁panel	-10.3015
▁Columbia	-10.3016
▁Roger	-10.3018
▁interior	-10.3018
ruli	-10.3019
▁Hindu	-10.3019
▁successor	-10.3021
▁supposed	-10.3023
▁southeast	-10.3025
▁Georgian	-10.3027
▁Y	-10.3028
▁Santa	-10.3029
▁chair	-10.3044
▁emotional	-10.3044
ERA	-10.3059
▁composer	-10.306
▁bound	-10.3062
▁row	-10.3063
▁Bosto	-10.3071
▁Car	-10.3083
▁plane	-10.3107
gé	-10.311
▁adventure	-10.3116
glades	-10.3118
▁econom	-10.3119
▁Bo	-10.312
▁Public	-10.3121
▁deploy	-10.3124
▁tunnel	-10.3126
▁Hibari	-10.3126
▁archaeologist	-10.3127
▁About	-10.3127
▁attain	-10.3129
▁journalist	-10.3131
▁Holly	-10.3135
▁shooting	-10.3138
▁establishment	-10.3145
▁sand	-10.3149
ather	-10.3162
▁judge	-10.3167
▁94	-10.3174
▁Miss	-10.3183
▁Ben	-10.3187
ez	-10.3188
▁55	-10.3192
▁importan	-10.3197
▁rival	-10.32
▁drop	-10.3204
▁Ga	-10.3217
ey	-10.3219
ership	-10.3222
▁medi	-10.3226
▁correct	-10.323
▁sample	-10.3233
ier	-10.3234
▁component	-10.3239
▁theatre	-10.3239
▁Romani	-10.324
▁convoy	-10.3241
84	-10.3244
▁owner	-10.3246
▁truth	-10.3246
ius	-10.3249
▁160	-10.3249
▁1982	-10.325
▁visitor	-10.3259
▁Venus	-10.326
▁Mor	-10.3261
▁250	-10.3263
▁load	-10.3268
▁Perr	-10.328
▁associate	-10.3284
▁finds	-10.3289
▁Down	-10.3296
▁Ro	-10.3307
ho	-10.3312
▁Iguanodon	-10.3323
ean	-10.3325
▁trad	-10.3331
▁96	-10.3332
▁repeated	-10.3342
▁engag	-10.3346
▁ice	-10.3347
▁Haiti	-10.3348
▁Industr	-10.3352
▁speech	-10.3354
▁rural	-10.3354
▁offense	-10.3354
▁61	-10.3355
▁exit	-10.3355
▁ex	-10.3355
▁academic	-10.3356
▁Howard	-10.3356
▁Destin	-10.3357
▁1913	-10.3358
▁exact	-10.3358
▁1916	-10.3359
▁Jones	-10.3367
▁glass	-10.3376
▁CD	-10.3387
▁bank	-10.339
▁110	-10.3401
▁Holy	-10.3406
▁driver	-10.3407
▁remix	-10.3411
▁twin	-10.3417
▁soft	-10.3427
▁Wil	-10.3433
▁shore	-10.3444
ook	-10.345
▁fun	-10.3455
▁Bull	-10.3463
▁dispute	-10.3469
▁controvers	-10.347
▁Similar	-10.347
▁doubt	-10.347
▁predator	-10.3472
▁plain	-10.3474
▁Secretary	-10.3476
▁Wy	-10.3476
▁IG	-10.3479
▁1943	-10.3482
gun	-10.3482
▁dog	-10.3485
▁alter	-10.3488
▁Gwen	-10.3497
▁urban	-10.3499
▁designation	-10.3506
▁trie	-10.3512
slo	-10.3518
▁announce	-10.3521
▁Dublin	-10.3525
▁defin	-10.3525
▁dismiss	-10.3526
▁Short	-10.3542
▁card	-10.3559
▁Office	-10.358
▁exhibit	-10.3582
▁certifi	-10.3587
▁variation	-10.3588
▁benefit	-10.3588
▁constant	-10.3588
▁Stephen	-10.3588
▁opposition	-10.3588
▁Montana	-10.3588
▁download	-10.3588
▁Snow	-10.3589
▁pregnan	-10.3591
▁Native	-10.3591
▁inspiration	-10.3593
ado	-10.3596
▁replacement	-10.3596
▁capacit	-10.3596
▁contest	-10.3597
▁rifle	-10.3598
▁introduction	-10.3601
▁Homer	-10.3615
▁sports	-10.3624
▁drain	-10.3628
▁heat	-10.3628
▁parliament	-10.3636
▁Mac	-10.3637
CE	-10.3648
58	-10.3656
▁symbol	-10.3663
▁note	-10.3673
11	-10.3678
▁nois	-10.3685
▁distinct	-10.3703
▁bear	-10.3704
ization	-10.3705
▁Alexander	-10.3707
▁Mississippi	-10.3707
▁Trujill	-10.3707
▁recruit	-10.3707
▁reputation	-10.3707
▁sequel	-10.3707
▁journey	-10.3707
▁Samuel	-10.3707
▁substantial	-10.3707
▁wish	-10.3709
▁surrender	-10.371
▁Ridge	-10.3711
▁Rangers	-10.3711
▁exception	-10.3711
▁Activis	-10.3712
body	-10.3712
▁Lis	-10.3714
▁Critical	-10.372
▁dominat	-10.372
▁Will	-10.3729
▁assistance	-10.373
▁Croatian	-10.3732
▁politic	-10.3734
▁dry	-10.3734
▁acquir	-10.374
▁venue	-10.3743
ence	-10.3748
io	-10.3749
▁NH	-10.3753
▁prey	-10.3758
▁roll	-10.3759
▁appli	-10.3759
▁Arthur	-10.3761
▁graphic	-10.3773
▁distinguish	-10.3775
▁catch	-10.3783
▁Friends	-10.3787
▁Team	-10.38
▁Men	-10.3801
▁defender	-10.3802
ca	-10.3803
67	-10.3816
▁Stevens	-10.3816
▁Per	-10.3818
iness	-10.382
▁map	-10.382
▁romantic	-10.3828
▁valley	-10.3828
▁march	-10.3828
▁instance	-10.3828
▁expansion	-10.3828
▁distribution	-10.3831
▁baby	-10.3836
▁1953	-10.3839
▁drug	-10.3842
▁tomb	-10.3842
▁cake	-10.3851
inches	-10.3857
ak	-10.3859
▁46	-10.386
▁Dann	-10.3874
▁shipp	-10.3879
▁inner	-10.388
▁Recording	-10.3882
ang	-10.3899
▁flag	-10.3904
▁earth	-10.3909
▁Bana	-10.3916
66	-10.392
telligence	-10.3926
▁detect	-10.3928
▁Roxa	-10.3949
▁responsibilit	-10.395
▁monarch	-10.395
▁Frederick	-10.395
▁application	-10.395
▁alternative	-10.395
▁department	-10.3952
▁Play	-10.3952
▁72	-10.3952
▁fictional	-10.3966
▁belong	-10.397
▁Hart	-10.3971
▁76	-10.3984
ew	-10.3984
▁Swed	-10.3992
▁charit	-10.3994
von	-10.3994
▁Rose	-10.3995
▁Famil	-10.4003
▁190	-10.4004
tage	-10.4006
▁exchange	-10.4011
▁Han	-10.4012
▁Alan	-10.4013
▁pitcher	-10.4018
▁ridge	-10.4026
▁proper	-10.4029
▁door	-10.403
▁premiere	-10.4047
ko	-10.405
at	-10.4055
▁Its	-10.4059
▁deriv	-10.4065
▁honour	-10.4065
▁Carl	-10.4068
quite	-10.4068
▁Calvert	-10.4073
▁portrait	-10.4073
▁expert	-10.4073
▁Tower	-10.4073
▁favorite	-10.4073
▁Stefan	-10.4075
▁thirt	-10.4076
▁Order	-10.4077
▁railway	-10.4077
▁battleship	-10.4077
▁Clark	-10.4079
▁62	-10.4082
▁NBC	-10.4082
jev	-10.4083
▁signal	-10.4087
iston	-10.4098
▁77	-10.4103
ology	-10.4111
▁lose	-10.4131
▁aware	-10.414
▁con	-10.4141
56	-10.4145
▁bodie	-10.4145
▁historic	-10.4147
▁reading	-10.4153
▁split	-10.4159
tadium	-10.4172
▁emerg	-10.4172
▁cycle	-10.4173
▁pound	-10.4174
64	-10.4174
▁signing	-10.4175
▁canal	-10.4177
cross	-10.4194
▁Am	-10.4196
▁resource	-10.4198
▁Isabella	-10.4198
▁Plunkett	-10.4198
▁crown	-10.4198
▁squadron	-10.4198
▁bright	-10.4199
▁surprise	-10.4199
▁Hugh	-10.42
▁Base	-10.42
▁edit	-10.4204
▁chemical	-10.4204
▁franchise	-10.4209
▁convecti	-10.421
77	-10.4215
▁fix	-10.422
▁DNA	-10.422
▁neck	-10.4222
ware	-10.4241
▁puzzle	-10.4246
▁invit	-10.4246
▁interchange	-10.4248
▁moderate	-10.4249
▁secur	-10.4251
▁Pri	-10.4252
▁remove	-10.426
▁95	-10.4262
▁knots	-10.427
▁Recept	-10.4277
▁afterward	-10.4279
▁identit	-10.4282
92	-10.4282
▁Arts	-10.4284
▁alien	-10.4285
▁nin	-10.429
▁Sap	-10.4292
ent	-10.4295
▁85	-10.4298
▁compete	-10.4311
▁notice	-10.4314
▁joint	-10.4315
▁tribes	-10.4319
▁flat	-10.4321
▁characteristics	-10.4323
▁convince	-10.4325
▁festival	-10.4325
▁predecessor	-10.4325
▁Jersey	-10.4325
▁recognition	-10.4325
▁Colonel	-10.4325
▁assistant	-10.4326
▁Chronicle	-10.4326
▁consistent	-10.4326
▁colonial	-10.4327
▁conference	-10.4327
▁Duke	-10.4327
▁1890	-10.4327
▁Strand	-10.4327
▁preparation	-10.4327
▁manner	-10.433
▁1917	-10.4331
▁ocean	-10.4332
▁proceed	-10.4333
▁preferr	-10.4334
▁step	-10.4335
▁1948	-10.4336
▁Tree	-10.4352
▁plays	-10.4355
▁vary	-10.4372
▁accus	-10.4372
▁let	-10.4375
▁scholars	-10.4376
▁81	-10.4376
▁bell	-10.438
▁hat	-10.438
▁thin	-10.4382
▁roads	-10.4386
▁Pine	-10.4387
▁authors	-10.4389
▁eyes	-10.4391
▁Jos	-10.4391
▁declin	-10.4394
▁Argentin	-10.44
▁scholar	-10.44
▁hill	-10.4406
onica	-10.4409
▁environment	-10.4423
▁Victoria	-10.4426
46	-10.4431
▁collapse	-10.4434
worth	-10.4436
Brien	-10.4451
▁faith	-10.4453
▁diameter	-10.4453
▁pupil	-10.4453
▁lay	-10.4453
▁wicket	-10.4453
▁cult	-10.4454
▁regiment	-10.4454
▁dramatic	-10.4455
▁mechanic	-10.4457
▁jazz	-10.4457
elevision	-10.4459
▁adaptation	-10.4459
69	-10.4459
▁bond	-10.446
▁tale	-10.4462
▁Castle	-10.4465
▁accident	-10.4486
▁mere	-10.4492
▁categor	-10.4494
▁Tu	-10.4498
▁issu	-10.4501
▁publisher	-10.4509
ard	-10.4513
▁Press	-10.4518
ía	-10.4525
▁tactic	-10.4533
▁touch	-10.4534
▁minister	-10.4535
la	-10.4542
▁electric	-10.4549
▁gate	-10.4552
▁Fame	-10.4575
▁Norman	-10.4581
▁worship	-10.4582
▁sudden	-10.4583
▁Transport	-10.4583
▁Jifn	-10.4583
▁Plot	-10.4586
▁tourist	-10.4589
▁Aston	-10.459
▁Independent	-10.4596
▁europ	-10.4596
▁1954	-10.4597
▁completion	-10.4597
▁ensure	-10.4598
▁prompt	-10.4598
▁Night	-10.4599
▁belt	-10.4601
▁evening	-10.4613
▁r	-10.4617
▁pool	-10.4621
▁Carol	-10.4622
▁arc	-10.4647
▁supporter	-10.465
▁desert	-10.4663
▁entertain	-10.4672
▁189	-10.4688
▁mine	-10.4697
▁mark	-10.4712
▁Archaeolog	-10.4714
▁spirit	-10.4714
▁Jerusalem	-10.4714
▁turret	-10.4714
▁Modern	-10.4714
▁Netherland	-10.4714
▁squad	-10.4716
▁monitor	-10.4716
▁Just	-10.4718
▁sort	-10.4718
▁1937	-10.4718
▁theater	-10.4721
▁cold	-10.4723
▁driv	-10.4725
▁happ	-10.4727
▁Wilde	-10.473
▁craft	-10.4738
▁regional	-10.4742
▁recognize	-10.4746
▁observe	-10.4751
wealth	-10.4753
zong	-10.4763
▁Top	-10.4765
▁accompani	-10.4777
▁Sever	-10.4777
za	-10.4779
▁Po	-10.4783
▁Hamil	-10.4784
▁context	-10.4786
▁programme	-10.4794
▁Isle	-10.4794
▁lands	-10.4796
▁Run	-10.4802
▁indig	-10.4807
▁champion	-10.481
cal	-10.4811
▁Adam	-10.4813
▁favour	-10.4813
▁Count	-10.4814
▁Fish	-10.4821
▁coup	-10.4837
▁184	-10.4839
▁measur	-10.4841
▁Mari	-10.4846
▁criminal	-10.4848
▁segment	-10.4848
▁wrong	-10.4848
▁Kilmer	-10.4849
▁organisation	-10.4851
▁Carter	-10.4855
▁contribution	-10.4856
▁initiative	-10.486
▁1955	-10.4861
▁News	-10.4865
▁deni	-10.4867
▁founder	-10.487
▁classifi	-10.4873
▁attribute	-10.4873
▁Ré	-10.4883
▁Writing	-10.4888
▁travell	-10.489
▁wine	-10.4896
lay	-10.4901
▁strip	-10.4905
▁farm	-10.4909
▁Cory	-10.4925
▁patron	-10.4936
V	-10.4948
▁steam	-10.4954
▁winner	-10.4965
▁intention	-10.4966
▁varie	-10.4966
FA	-10.4967
▁strateg	-10.4967
H	-10.4968
▁camps	-10.497
▁grand	-10.4975
▁governor	-10.4976
▁worth	-10.498
▁fragment	-10.4983
▁register	-10.4983
▁Point	-10.4983
▁Rifle	-10.4983
▁knock	-10.4983
▁Chief	-10.4984
▁Color	-10.4984
▁Beach	-10.4987
▁1900	-10.4989
▁Bell	-10.4991
▁committ	-10.4993
▁Pro	-10.5002
▁stem	-10.5003
▁towns	-10.5006
▁Station	-10.5008
▁suit	-10.501
▁propose	-10.5012
▁researcher	-10.5017
▁organ	-10.5021
▁firing	-10.5047
ong	-10.5047
▁grey	-10.5072
ex	-10.5074
fer	-10.5076
▁warning	-10.5079
▁Spring	-10.5081
▁i	-10.509
▁youth	-10.5096
▁none	-10.51
▁Cape	-10.5103
ette	-10.5107
▁classic	-10.5118
▁scientist	-10.512
▁Type	-10.512
▁dialogue	-10.512
▁lbw	-10.5121
▁corn	-10.5122
▁shark	-10.5122
▁restrict	-10.5122
▁anniversar	-10.5123
tial	-10.5123
▁Francisc	-10.5123
▁Ryan	-10.5123
▁soul	-10.5125
▁Jean	-10.5127
▁1949	-10.5134
▁Iron	-10.5139
▁internal	-10.5142
▁offering	-10.5143
▁Ni	-10.5144
▁Guy	-10.5154
▁admitted	-10.5158
▁Adams	-10.5159
▁stretch	-10.5162
W	-10.5169
▁ti	-10.517
ersonnel	-10.5189
▁Thir	-10.5199
olí	-10.5203
▁Johnston	-10.5213
ov	-10.5229
▁Test	-10.5231
▁churche	-10.5232
il	-10.5234
ches	-10.5251
and	-10.5259
▁Cambridge	-10.5259
mbled	-10.5259
▁watershed	-10.5259
▁opposite	-10.5259
▁adjacen	-10.526
▁Square	-10.526
▁Queens	-10.5261
▁guilt	-10.5262
▁albums	-10.5263
epression	-10.5268
▁Korean	-10.5272
▁Hotel	-10.5272
▁starts	-10.5272
▁discussion	-10.5272
▁Congo	-10.5274
▁Gate	-10.5275
zed	-10.5276
▁Jesu	-10.5277
▁eighth	-10.529
▁Te	-10.5291
borough	-10.5292
what	-10.5318
▁Fras	-10.532
▁trouble	-10.5326
▁Serb	-10.5328
▁coal	-10.5337
▁Research	-10.5344
bert	-10.5347
▁Ba	-10.5348
▁existen	-10.5353
▁experiment	-10.5359
▁pursue	-10.5364
▁lap	-10.5376
▁Georgia	-10.5382
19	-10.5386
▁install	-10.539
▁molecule	-10.5399
▁superior	-10.5399
▁kitsune	-10.5399
▁Gerard	-10.54
▁Initial	-10.54
▁ruin	-10.54
▁listen	-10.54
▁controversial	-10.54
▁apart	-10.5401
▁Persian	-10.5401
▁evil	-10.5401
▁employee	-10.5401
▁crest	-10.5404
▁Human	-10.5404
▁ill	-10.5404
▁1910	-10.5405
▁Guide	-10.5405
▁agricultural	-10.5409
▁photograph	-10.541
▁Prior	-10.541
▁stadium	-10.5411
▁Leonard	-10.5417
▁magic	-10.5434
▁eliminat	-10.5439
25	-10.5444
▁hall	-10.5446
▁Chain	-10.5447
▁legend	-10.5448
▁hear	-10.545
▁termin	-10.5452
▁deck	-10.5458
▁Somalia	-10.5461
▁grass	-10.5464
▁possess	-10.5466
▁Stock	-10.5469
iana	-10.5481
istic	-10.549
oba	-10.5491
▁UN	-10.5496
▁Hav	-10.5502
▁Far	-10.551
▁conclude	-10.5518
▁Burns	-10.5519
▁bass	-10.5521
▁cloth	-10.5536
▁Design	-10.5536
▁Nor	-10.554
▁Attorney	-10.5542
▁streak	-10.5542
▁conclusion	-10.5543
▁talent	-10.5543
▁Mortal	-10.5545
▁medium	-10.5548
▁cloud	-10.555
▁tone	-10.5552
▁solid	-10.5555
cruz	-10.5555
off	-10.556
expected	-10.5561
▁Aeri	-10.5568
▁dock	-10.5569
▁schedul	-10.5573
▁moves	-10.5577
83	-10.5578
▁bigge	-10.5584
▁handl	-10.5591
▁Your	-10.5591
▁Ash	-10.5596
ious	-10.5609
▁engineering	-10.5612
▁Eric	-10.5615
▁Dream	-10.5624
▁Late	-10.5624
▁arrang	-10.5644
rence	-10.5654
▁stream	-10.5657
▁59	-10.5659
▁Muld	-10.5669
▁Wolf	-10.5673
▁66	-10.5673
▁hip	-10.5674
▁Inter	-10.5676
▁rhythm	-10.5682
ombat	-10.5685
▁Hospital	-10.5687
▁lb	-10.5687
▁Peninsula	-10.5687
▁steel	-10.5687
▁feather	-10.5687
▁remember	-10.5687
▁equivalent	-10.5688
▁narrative	-10.5688
▁scientific	-10.5689
▁1880	-10.569
▁1909	-10.5691
▁equipp	-10.5692
▁Dark	-10.5694
▁chamber	-10.5694
▁Palace	-10.5695
red	-10.5702
▁Owen	-10.5703
▁selection	-10.5706
▁visibl	-10.5713
▁encourag	-10.5715
50	-10.5722
J	-10.5724
▁Garc	-10.5738
▁IV	-10.5754
kin	-10.5757
▁intense	-10.5759
▁medica	-10.5761
▁price	-10.5765
▁Mu	-10.5775
▁Key	-10.5782
▁classe	-10.5791
▁designer	-10.5795
▁Gull	-10.5801
▁Back	-10.5802
▁wealth	-10.5804
im	-10.5805
he	-10.5807
▁resemble	-10.5812
▁wherea	-10.5816
30	-10.582
viation	-10.5821
▁Stor	-10.5823
▁electronic	-10.5826
▁Elizabeth	-10.5834
▁siege	-10.5834
▁perspective	-10.5834
▁global	-10.5835
▁twelve	-10.5835
▁income	-10.5836
▁affair	-10.5836
▁FIA	-10.5837
▁temporar	-10.5838
▁Flight	-10.5838
▁gross	-10.5838
▁1935	-10.5839
▁Space	-10.584
▁Poland	-10.5843
▁improvement	-10.5843
▁Ja	-10.5843
▁circle	-10.5844
eath	-10.5847
▁Fe	-10.585
▁Media	-10.5853
ba	-10.5854
▁fair	-10.5858
▁runner	-10.5861
▁picture	-10.5863
tendo	-10.5865
▁expens	-10.5867
documentary	-10.5868
▁Lancas	-10.5873
▁suburb	-10.5878
▁classical	-10.5879
mont	-10.5879
▁Every	-10.5886
▁Kod	-10.5891
▁Bar	-10.5899
▁Shao	-10.5901
▁industrial	-10.5905
▁dynast	-10.5907
▁rug	-10.5911
▁Fei	-10.5918
fare	-10.592
▁71	-10.5926
ill	-10.5931
▁Di	-10.5937
▁Burn	-10.594
over	-10.5946
▁Bank	-10.5953
▁views	-10.5954
like	-10.5957
ha	-10.5975
▁erect	-10.5978
▁cent	-10.5981
▁Enterprise	-10.5984
▁amateur	-10.5984
▁escort	-10.5984
▁Release	-10.5984
▁gift	-10.5984
▁extension	-10.5984
▁Shakespeare	-10.5985
▁Giant	-10.5987
▁1932	-10.5987
ou	-10.5987
▁Allah	-10.5991
▁Jay	-10.6
ormula	-10.6002
▁intensifi	-10.6003
▁transition	-10.6004
▁98	-10.6025
▁Now	-10.6034
▁hous	-10.6034
▁175	-10.6048
▁suffering	-10.6051
math	-10.6054
▁agenc	-10.6058
▁meter	-10.606
union	-10.6061
▁union	-10.6064
▁Na	-10.6064
▁refuse	-10.6089
▁deposit	-10.6095
▁See	-10.6096
▁Alli	-10.61
▁restore	-10.6103
▁wins	-10.6104
▁patrol	-10.6104
▁Story	-10.6107
▁canon	-10.6108
vāda	-10.6109
▁Maria	-10.6112
ki	-10.6116
▁preserve	-10.6117
í	-10.613
▁predict	-10.613
▁bishop	-10.6135
▁behaviour	-10.6135
▁format	-10.6135
▁holiday	-10.6135
▁prerogative	-10.6135
▁fifteen	-10.6135
▁Channel	-10.6135
▁circumstance	-10.6136
▁Communist	-10.6136
▁helmet	-10.6136
▁Guardian	-10.6136
▁Jo	-10.6136
▁absence	-10.6136
▁answer	-10.6136
▁Sweet	-10.6136
▁Pitman	-10.6136
▁renew	-10.6137
▁reconstruction	-10.6137
▁1929	-10.6139
▁1921	-10.6139
▁climate	-10.6139
▁Rug	-10.614
ire	-10.614
▁Cold	-10.6141
▁Link	-10.6142
▁vot	-10.6144
▁argument	-10.6145
▁Sound	-10.6145
▁clock	-10.6149
▁Jew	-10.615
▁gone	-10.6156
▁Bru	-10.6157
mar	-10.6159
▁Moore	-10.6159
▁tee	-10.6172
▁Special	-10.6177
▁prisoner	-10.618
▁substitute	-10.6181
▁AD	-10.6183
▁locate	-10.6187
ron	-10.6189
▁emphasis	-10.6193
▁ranking	-10.6196
▁combine	-10.6202
ible	-10.6204
▁Fair	-10.6209
no	-10.6212
▁Tel	-10.622
▁182	-10.622
▁Rob	-10.6221
▁incorporat	-10.6226
▁Critic	-10.6227
heim	-10.6228
▁crossing	-10.6231
IFA	-10.6237
▁divers	-10.6243
▁Lords	-10.6245
▁ray	-10.6248
45	-10.6252
▁muscari	-10.6261
▁plate	-10.6266
▁flower	-10.6266
▁Cambodia	-10.627
▁disc	-10.6272
▁distribut	-10.6275
mperor	-10.6287
▁exhaust	-10.6287
graf	-10.6288
▁Education	-10.6289
▁acclaim	-10.6289
▁goddess	-10.6289
▁scatter	-10.6289
▁Protestant	-10.6289
▁drink	-10.6289
▁fountain	-10.6289
▁Imperial	-10.6289
▁spiritual	-10.6289
▁brick	-10.6291
▁beautiful	-10.6291
▁Usta	-10.6292
▁amino	-10.6293
▁deem	-10.6293
▁investigation	-10.6293
▁hel	-10.6293
▁Phillie	-10.6294
▁1938	-10.6296
▁Republican	-10.6305
▁van	-10.6318
▁Lega	-10.632
▁1962	-10.6321
▁influen	-10.6323
▁Ancient	-10.6323
ttle	-10.633
▁marks	-10.6332
▁Ch	-10.6333
▁participate	-10.6336
▁Cast	-10.634
▁waters	-10.6344
▁hot	-10.6349
▁bone	-10.6358
▁pure	-10.636
▁greates	-10.6374
▁diet	-10.6377
▁relegat	-10.6379
tropic	-10.638
▁realize	-10.639
▁Sol	-10.6391
▁Sta	-10.6393
▁prison	-10.6399
▁listing	-10.64
▁generat	-10.6407
diterran	-10.6419
ā	-10.6421
▁blow	-10.6436
▁assert	-10.6438
▁occasions	-10.6439
▁Palestin	-10.6445
▁false	-10.6445
▁Jeff	-10.6445
▁simultaneous	-10.6445
▁disaster	-10.6445
▁comparison	-10.6445
▁departure	-10.6446
▁accompany	-10.6446
▁Phoeni	-10.6446
▁exposure	-10.6448
▁legislation	-10.6449
▁residence	-10.6449
▁parish	-10.645
▁exercise	-10.645
▁Grammy	-10.645
▁Show	-10.6451
▁shirt	-10.6451
▁Nick	-10.6452
▁stable	-10.6454
▁Furta	-10.6455
▁Má	-10.6464
▁79	-10.647
▁Massac	-10.6473
▁sky	-10.6478
▁fami	-10.6478
rque	-10.6482
ling	-10.6482
ich	-10.6488
▁settl	-10.6496
▁Matt	-10.6499
▁survivors	-10.6499
▁stands	-10.6509
▁heads	-10.6515
E	-10.6515
▁Lu	-10.6518
▁fold	-10.6525
▁closer	-10.6536
▁Val	-10.6538
▁rid	-10.6539
▁Marc	-10.654
▁developer	-10.6541
▁showing	-10.6549
nterbur	-10.6563
op	-10.6568
ite	-10.6568
▁Vice	-10.6571
▁encourage	-10.6573
▁explore	-10.6573
▁DC	-10.6581
▁isolat	-10.6588
life	-10.659
▁shoulder	-10.6599
▁tip	-10.6601
▁decorat	-10.6602
▁incorporate	-10.6603
▁colleague	-10.6604
▁suspect	-10.6604
▁choir	-10.6604
▁gather	-10.6605
▁mixture	-10.6606
▁loan	-10.6607
▁concentration	-10.6607
▁scheme	-10.6607
▁tributar	-10.6609
▁Krak	-10.661
▁tube	-10.6611
athedral	-10.6611
▁rhyme	-10.6613
▁entitl	-10.6615
era	-10.6616
▁Along	-10.6617
▁crash	-10.6617
▁purchas	-10.6618
hi	-10.662
MO	-10.6621
▁crake	-10.6625
▁depiction	-10.6626
▁statistic	-10.663
▁Raff	-10.6631
▁bearing	-10.6635
▁understand	-10.6642
ors	-10.6658
▁criticis	-10.6659
▁Head	-10.6661
▁Israeli	-10.6665
▁Dan	-10.6675
seas	-10.6689
▁musicians	-10.6692
▁advertis	-10.6704
▁Ed	-10.6707
▁Tale	-10.6707
Dominican	-10.6712
▁Wom	-10.6713
▁Da	-10.6716
▁understanding	-10.6722
▁nurse	-10.6727
▁profit	-10.6729
▁hir	-10.6729
▁Grad	-10.6739
▁solution	-10.6743
▁compris	-10.675
▁exten	-10.6753
▁Bass	-10.6757
▁publishe	-10.6759
▁Cub	-10.676
▁shop	-10.6761
▁implement	-10.6761
▁grade	-10.6762
▁Journal	-10.6764
▁Eagle	-10.6765
▁Saturday	-10.6765
▁behavior	-10.6765
▁manuscript	-10.6765
▁skull	-10.6765
▁Mexican	-10.6765
▁DAG	-10.6766
▁tight	-10.6767
▁huge	-10.6767
▁giant	-10.6767
▁elevation	-10.6768
▁infrastructur	-10.677
▁aggressive	-10.6772
▁impression	-10.6774
▁northward	-10.6783
▁el	-10.6785
nlike	-10.6797
▁Maggi	-10.6799
▁Bus	-10.68
▁biographer	-10.6801
X	-10.681
▁spell	-10.681
▁blocks	-10.6816
▁Dec	-10.6821
berg	-10.6823
▁rang	-10.6826
ge	-10.6849
▁confus	-10.685
▁musician	-10.6853
ification	-10.6856
munition	-10.6857
▁speaker	-10.6859
▁pine	-10.6867
▁dream	-10.6868
OK	-10.6868
DS	-10.6874
▁sun	-10.6877
▁plum	-10.6878
▁mode	-10.6892
▁USD	-10.6894
▁attribut	-10.6895
▁bus	-10.6895
▁slave	-10.6903
▁undergo	-10.6911
▁inhabit	-10.6911
▁buy	-10.6914
▁bann	-10.6919
▁Clarks	-10.6924
boy	-10.6925
▁tribute	-10.6929
▁creek	-10.6929
▁Richmond	-10.6929
▁dinosaur	-10.6929
▁embark	-10.6929
▁Blood	-10.6929
▁Barker	-10.6931
▁Tiger	-10.6931
▁modifi	-10.6931
▁Place	-10.6931
▁Er	-10.6932
▁librar	-10.6933
huset	-10.6934
▁reinforcement	-10.6936
stock	-10.6936
▁willing	-10.6937
▁annually	-10.6937
▁brand	-10.6939
▁turns	-10.6939
▁continuous	-10.694
▁crosse	-10.6945
▁slope	-10.6947
▁commandment	-10.6947
▁useful	-10.6948
▁eat	-10.6953
aware	-10.6958
▁Parvat	-10.6964
▁switch	-10.6965
zac	-10.6965
▁sunk	-10.6972
▁Che	-10.6978
olar	-10.6982
ol	-10.6993
O	-10.6993
▁dad	-10.6995
▁74	-10.7003
▁186	-10.7003
▁elaborate	-10.7008
▁demonstrat	-10.7009
▁Our	-10.7013
▁pit	-10.7014
▁conversation	-10.7019
▁earning	-10.7033
ugh	-10.7037
▁Fire	-10.7055
▁interpret	-10.7059
▁witness	-10.706
▁Fi	-10.7063
▁Thai	-10.7075
▁span	-10.7082
▁lake	-10.7087
▁disappear	-10.7095
▁architect	-10.7095
▁Portugal	-10.7096
▁helicopter	-10.7096
▁jackrabbit	-10.7096
▁shelter	-10.7096
▁Ministr	-10.7096
▁differ	-10.7096
▁accurate	-10.7096
▁Hokie	-10.7097
▁Federal	-10.7097
▁Who	-10.7097
▁Kannad	-10.7097
▁kingdom	-10.7098
▁absolute	-10.7098
▁Silver	-10.7098
▁Township	-10.7098
▁Norway	-10.7098
▁definition	-10.7099
▁1928	-10.7101
▁CBS	-10.7102
sey	-10.7104
▁cancer	-10.7109
Hg	-10.7115
▁expression	-10.7116
▁requirement	-10.7117
▁82	-10.7118
▁Territor	-10.7119
▁artificial	-10.712
▁Sam	-10.7121
▁drums	-10.7141
▁emergenc	-10.7142
▁altar	-10.7154
▁farmer	-10.7158
▁sponsor	-10.7161
▁Historic	-10.7165
▁Pe	-10.7168
▁cook	-10.7171
▁88	-10.7178
▁sale	-10.7188
ek	-10.7196
▁covering	-10.7201
▁Nov	-10.7202
ica	-10.7222
▁convention	-10.7226
▁Yo	-10.7229
▁celebrate	-10.7236
07	-10.7237
▁weigh	-10.7242
▁gre	-10.7243
▁impossibl	-10.7244
ori	-10.7256
▁dis	-10.7258
▁Islam	-10.7258
▁graduat	-10.7262
▁Dean	-10.7264
▁substance	-10.7265
▁Stewart	-10.7265
▁ethnic	-10.7265
▁shrine	-10.7266
▁Nebr	-10.7266
▁device	-10.7266
▁prize	-10.7266
▁Wright	-10.7266
▁Minor	-10.7267
▁ticket	-10.7267
▁Senator	-10.7267
▁Baker	-10.7267
▁principle	-10.7267
▁Eaton	-10.7268
▁retirement	-10.7268
▁collaboration	-10.7268
▁powers	-10.7269
▁Death	-10.727
▁1927	-10.727
▁Police	-10.727
▁dense	-10.7273
▁phrase	-10.728
▁preced	-10.7282
oit	-10.7282
▁Commando	-10.7286
▁bay	-10.7287
▁insist	-10.729
▁tax	-10.7293
▁vice	-10.7293
▁Patty	-10.7296
▁vertical	-10.7304
▁curve	-10.7307
▁lift	-10.7319
▁Khand	-10.733
▁Allen	-10.7331
▁excavation	-10.7345
ana	-10.7347
▁Su	-10.7349
▁partner	-10.7352
▁assum	-10.7353
▁Pa	-10.7359
▁slide	-10.737
▁minim	-10.7373
▁execut	-10.7373
AF	-10.7376
mouth	-10.7385
▁Face	-10.7385
▁philosoph	-10.7392
▁assume	-10.7394
BC	-10.7397
fall	-10.7398
▁warn	-10.74
med	-10.7402
▁prime	-10.7403
ood	-10.7411
▁Philip	-10.7413
▁manage	-10.7415
CA	-10.7418
▁Com	-10.7422
BN	-10.7425
▁code	-10.7429
▁Camp	-10.743
ola	-10.7434
▁Sports	-10.7434
▁Bas	-10.7434
▁transform	-10.7434
▁empire	-10.7438
▁occupation	-10.7438
▁Hudson	-10.7438
▁buoy	-10.7438
▁nickname	-10.7438
▁garrison	-10.7438
▁Yankee	-10.7438
niowiecki	-10.7438
▁Celtic	-10.7438
▁Gilbert	-10.7438
▁Perfect	-10.7438
▁Express	-10.7438
▁Room	-10.7439
▁dangerous	-10.7439
▁Midge	-10.744
▁restoration	-10.744
▁1933	-10.7441
erial	-10.7441
▁Hor	-10.7442
▁burning	-10.7442
▁Weir	-10.7442
▁inhabitant	-10.7442
RELI	-10.7443
▁Hawaiian	-10.7444
▁1860	-10.7444
▁westward	-10.7444
▁Haitian	-10.7446
▁moon	-10.7447
▁translation	-10.7449
▁pale	-10.745
▁Miller	-10.7451
▁Season	-10.7452
▁ago	-10.7454
▁marry	-10.7455
▁mental	-10.7459
▁Kell	-10.746
▁follower	-10.7462
▁Victorian	-10.7476
▁Pi	-10.7477
▁Soon	-10.748
DH	-10.7481
▁lie	-10.7483
▁reconn	-10.7488
top	-10.7491
▁Justic	-10.7491
▁63	-10.7492
ane	-10.7493
▁Angl	-10.7494
▁lover	-10.7494
▁Last	-10.75
▁controller	-10.7501
ureau	-10.7503
▁Q	-10.7505
▁ride	-10.7508
▁Mi	-10.7518
▁89	-10.7526
▁07	-10.7532
▁Race	-10.7533
ight	-10.7535
ronto	-10.7536
aiss	-10.7548
▁Dail	-10.7551
▁coordinat	-10.7553
ny	-10.7554
▁Detr	-10.7567
▁statue	-10.757
▁Tim	-10.758
▁notabl	-10.7584
▁pace	-10.7585
▁complain	-10.7593
▁Secret	-10.7598
▁intersect	-10.7607
res	-10.7608
▁situat	-10.7608
▁Treat	-10.761
▁Mozambi	-10.7613
▁suspend	-10.7613
AS	-10.7613
▁conservation	-10.7613
▁Less	-10.7613
▁artwork	-10.7614
▁vast	-10.7615
▁politician	-10.7616
▁virtual	-10.7616
▁sharp	-10.7616
▁cabin	-10.7617
▁doctrine	-10.7617
▁elder	-10.7618
chess	-10.7619
▁attitude	-10.762
▁Chapel	-10.7621
▁1957	-10.7623
▁melod	-10.7623
▁achievement	-10.7627
▁advisor	-10.7631
▁choose	-10.7634
▁Davis	-10.7634
▁expos	-10.7634
lair	-10.7635
▁celebrat	-10.7637
▁Canal	-10.7645
▁Ray	-10.7653
▁Fran	-10.7656
▁Bro	-10.7658
▁memorial	-10.7662
▁realit	-10.7662
▁Kir	-10.7669
▁fate	-10.7673
▁Jr	-10.7675
▁Lenno	-10.7679
▁trace	-10.7695
▁Ge	-10.7706
▁tool	-10.771
▁relation	-10.7712
▁Kev	-10.7722
▁900	-10.7723
▁Ne	-10.7733
▁preserv	-10.7736
▁IS	-10.7743
▁Gun	-10.7745
▁93	-10.7745
anagement	-10.7746
▁Geoff	-10.7746
▁absorb	-10.7748
▁Bath	-10.7754
▁Jon	-10.7755
▁Patric	-10.7758
▁accomplish	-10.7766
▁compare	-10.7766
▁08	-10.7768
▁orchestra	-10.7769
▁Russia	-10.7774
U	-10.7782
▁hire	-10.7784
▁Pan	-10.779
▁danger	-10.7791
▁140	-10.7791
▁mammal	-10.7792
▁striking	-10.7792
▁ruling	-10.7792
▁Valkyria	-10.7792
▁frigate	-10.7792
▁Network	-10.7792
▁Organization	-10.7792
▁Oscar	-10.7792
▁tissue	-10.7792
▁Confession	-10.7792
▁halt	-10.7792
▁Railway	-10.7792
▁Memorial	-10.7793
▁Chaga	-10.7793
▁anekānta	-10.7793
▁Front	-10.7793
▁Scul	-10.7794
▁Marian	-10.7796
▁infection	-10.7797
▁topp	-10.7799
▁1850	-10.78
▁municipal	-10.7801
olf	-10.7803
▁measurement	-10.7811
▁saint	-10.7812
▁punt	-10.7818
▁burial	-10.7821
lstein	-10.7822
▁Class	-10.7823
▁courts	-10.7826
Malle	-10.783
▁Warren	-10.783
▁Barry	-10.7833
▁Ho	-10.7834
▁Fin	-10.7834
▁Hu	-10.7835
▁Much	-10.7836
▁Jonath	-10.7855
▁stock	-10.7858
▁Dave	-10.7861
▁originat	-10.7865
▁sit	-10.7867
▁horn	-10.7878
▁Abb	-10.7882
▁Nad	-10.7884
ett	-10.7904
▁Pole	-10.7905
▁appropriate	-10.791
wa	-10.7911
▁Ken	-10.7916
▁rat	-10.7928
ourney	-10.7931
ago	-10.7931
▁Thu	-10.794
17	-10.7942
▁manufactur	-10.7947
wards	-10.7948
night	-10.7951
▁readers	-10.7954
tanley	-10.7958
▁Cecil	-10.7962
▁corner	-10.7966
ntil	-10.7972
▁imprison	-10.7973
▁Arsenal	-10.7973
▁dwarf	-10.7973
▁error	-10.7973
▁reservoir	-10.7973
▁pistol	-10.7973
▁Mathew	-10.7974
▁magnitude	-10.7974
▁railroad	-10.7974
▁depart	-10.7974
▁Trek	-10.7976
▁Garden	-10.7977
▁1926	-10.7978
▁Magdalen	-10.798
▁classification	-10.798
▁trick	-10.7981
▁playoff	-10.7983
▁Tri	-10.7987
▁dynamic	-10.7989
▁ballad	-10.7992
▁Gray	-10.7994
▁lock	-10.7996
▁reinforce	-10.7997
▁Hope	-10.7998
▁genetic	-10.7998
▁Witch	-10.8
▁representation	-10.8001
▁fin	-10.8003
▁sung	-10.8004
▁Kenne	-10.8004
▁Well	-10.8005
▁164	-10.8006
ulu	-10.8006
▁destructi	-10.8008
▁pointed	-10.8018
AA	-10.8021
ensi	-10.8031
▁Oh	-10.804
▁stoo	-10.8042
40	-10.8044
ona	-10.8046
▁phone	-10.8046
▁Row	-10.8052
▁manga	-10.8054
▁organis	-10.8055
▁wings	-10.8066
▁crops	-10.8067
uri	-10.808
▁Anti	-10.8097
▁05	-10.8097
eception	-10.8098
▁emotion	-10.811
ario	-10.8112
inke	-10.8117
j	-10.8131
▁Christin	-10.8131
DOT	-10.8136
▁Eu	-10.8142
▁Kong	-10.8147
▁Pen	-10.8152
aw	-10.8154
ategor	-10.8157
▁Brazil	-10.8158
▁doctor	-10.8158
▁puppet	-10.8159
▁identify	-10.8159
▁smooth	-10.8159
▁shock	-10.8159
▁easy	-10.8159
▁Dakota	-10.8159
▁Corporation	-10.8159
▁profile	-10.8159
▁anthem	-10.8159
▁gap	-10.8159
▁cargo	-10.8161
▁reduction	-10.8161
▁architecture	-10.8162
▁1905	-10.8163
▁teammate	-10.8163
▁Eight	-10.8164
▁Priest	-10.8165
▁Nex	-10.8165
clusion	-10.8173
▁cancell	-10.8174
20	-10.8174
▁Bible	-10.8176
▁divorce	-10.8176
▁creative	-10.8177
▁compet	-10.8182
▁Bat	-10.8182
▁sink	-10.8186
▁Br	-10.8189
throne	-10.8191
▁Sb	-10.8191
▁alleged	-10.8193
▁68	-10.82
▁poll	-10.8216
▁Niels	-10.8216
▁thereafter	-10.8218
▁sacr	-10.8224
▁Stan	-10.8226
▁stick	-10.8227
om	-10.8234
▁identifie	-10.8237
▁Imagin	-10.8237
uck	-10.8241
▁Gi	-10.8262
▁VII	-10.827
ield	-10.8281
▁resistan	-10.8292
▁Galle	-10.8292
▁RAA	-10.8293
79	-10.8295
▁cup	-10.8297
▁Greg	-10.8301
▁challeng	-10.8304
▁constitution	-10.8307
▁Swi	-10.8312
▁Madi	-10.8314
inster	-10.8318
▁blame	-10.8325
▁marking	-10.8327
▁Christi	-10.8336
isation	-10.8339
▁Cook	-10.8346
▁Catechism	-10.8347
▁Chevalier	-10.8347
▁Herzegovin	-10.8347
▁transmission	-10.8347
▁Paralympic	-10.8347
▁afternoon	-10.8347
▁exploit	-10.8347
▁concession	-10.8347
▁Qedarite	-10.8348
▁illegal	-10.8348
▁martial	-10.8348
▁joke	-10.8349
▁Beeton	-10.8349
▁Iraq	-10.8349
▁Viet	-10.8349
▁Djo	-10.8349
▁outbreak	-10.835
aska	-10.835
▁distinctive	-10.835
▁Rich	-10.8351
mtav	-10.8355
▁decay	-10.8356
▁Ron	-10.8358
▁approval	-10.8358
▁Emmy	-10.8358
▁structural	-10.8359
76	-10.836
▁Ann	-10.836
▁toll	-10.8362
▁Lower	-10.8363
▁Hind	-10.8365
don	-10.8367
▁appointment	-10.8367
▁triple	-10.8372
▁Kurt	-10.8373
▁bind	-10.8374
▁circulati	-10.8376
▁Romanian	-10.8378
ennesse	-10.8387
▁Lesl	-10.8388
▁presentation	-10.8388
▁na	-10.8389
▁gr	-10.8392
▁Here	-10.8401
ev	-10.8403
▁Nel	-10.841
▁upset	-10.8412
▁09	-10.8413
▁Lover	-10.8415
▁67	-10.8417
▁Xeno	-10.8418
▁Mad	-10.8421
▁reache	-10.8422
▁trapp	-10.8429
▁Tru	-10.8434
▁Defens	-10.8434
▁cris	-10.8449
UE	-10.8451
▁Pry	-10.8451
▁mate	-10.8469
▁Carre	-10.8471
▁Thing	-10.8475
ini	-10.8479
▁drum	-10.8485
▁Col	-10.8487
▁Llo	-10.8497
▁garden	-10.8498
enjam	-10.8505
bound	-10.8506
cake	-10.8508
▁prepare	-10.8509
▁Dis	-10.851
▁characteriz	-10.8511
▁Kati	-10.8514
omura	-10.8515
cute	-10.853
▁considerabl	-10.8532
▁guid	-10.8533
▁disrupt	-10.8534
▁cinema	-10.8538
▁Wagner	-10.8539
▁persist	-10.854
▁consequence	-10.854
▁uncertain	-10.854
▁violent	-10.854
▁platoon	-10.854
▁Murray	-10.854
▁intellectual	-10.854
▁athletic	-10.854
▁Madrid	-10.854
▁Alfred	-10.854
▁Section	-10.854
▁Houston	-10.854
▁insect	-10.854
▁costume	-10.8541
▁Virgin	-10.8541
amount	-10.8544
▁animation	-10.8545
▁Building	-10.8546
▁Look	-10.855
▁1925	-10.8552
▁Tracy	-10.8552
utstanding	-10.8559
▁comprise	-10.8561
▁Kirk	-10.8569
▁merg	-10.8571
▁import	-10.8577
▁Such	-10.8582
▁radi	-10.8587
mbar	-10.859
ix	-10.8593
▁plus	-10.8602
▁initiat	-10.8607
▁Case	-10.8612
▁Sheff	-10.8616
▁Pr	-10.862
▁Con	-10.8626
▁Branc	-10.8628
▁Work	-10.8634
ography	-10.8642
▁approv	-10.8666
▁Artist	-10.8672
▁pack	-10.8673
ingham	-10.8686
▁check	-10.8702
▁professor	-10.8706
▁custom	-10.8711
▁bomb	-10.8711
▁Independen	-10.8715
roy	-10.8727
▁ideal	-10.8732
▁Cong	-10.8733
▁fift	-10.8735
▁Hawaii	-10.8735
▁Eshmun	-10.8736
▁demolish	-10.8736
▁Adventure	-10.8736
▁disband	-10.8736
▁Natural	-10.8737
▁Conservation	-10.8737
▁theatrical	-10.8737
▁Ghost	-10.8737
▁Peach	-10.8737
▁quarterback	-10.8737
▁Village	-10.8738
▁dozen	-10.8738
▁suicide	-10.8738
▁barrier	-10.8738
▁gust	-10.8738
▁bones	-10.8738
R	-10.8738
▁1934	-10.874
▁leukemia	-10.874
▁interpretation	-10.8741
▁satellite	-10.8743
ari	-10.8744
▁assassination	-10.8745
▁Walker	-10.8745
▁engagement	-10.8747
▁submitt	-10.8748
▁Adel	-10.8749
mann	-10.8757
▁Shell	-10.8763
▁Berlin	-10.8765
▁shar	-10.8765
▁sad	-10.8766
▁pounder	-10.8775
▁asteroid	-10.8779
▁artistic	-10.878
▁sure	-10.8789
nt	-10.8794
▁myth	-10.8795
owa	-10.8798
▁declare	-10.8798
rick	-10.8802
▁CE	-10.8813
▁NS	-10.8816
▁Roberts	-10.8823
▁authoriz	-10.8827
▁betwe	-10.8828
▁spin	-10.8831
▁ha	-10.8833
dominant	-10.8834
▁Main	-10.8842
▁balance	-10.8846
▁contribute	-10.8847
▁Evans	-10.8847
▁rebuil	-10.8853
▁tenth	-10.8861
▁Mar	-10.8863
▁Sil	-10.8864
▁Richards	-10.8865
▁proportion	-10.8868
▁anger	-10.8872
▁Char	-10.889
▁bow	-10.8891
0	-10.8892
▁Pu	-10.8904
▁Jun	-10.8908
▁fitt	-10.8908
▁Wicca	-10.8915
00	-10.892
▁export	-10.893
▁convict	-10.893
▁journal	-10.8931
ep	-10.8935
▁Sorraia	-10.8936
▁drove	-10.8936
▁junior	-10.8936
▁Labour	-10.8936
▁Vulcan	-10.8936
▁uniform	-10.8936
▁battlecruiser	-10.8936
▁Leigh	-10.8936
▁biological	-10.8936
▁Caesar	-10.8936
▁armour	-10.8936
▁Again	-10.8937
▁Supreme	-10.8937
▁pleasure	-10.8937
▁lawyer	-10.8937
▁Pula	-10.8937
▁cousin	-10.8938
▁destination	-10.8938
▁valid	-10.8938
▁1870	-10.8938
▁Eventual	-10.8939
▁1000	-10.8939
▁1908	-10.8941
▁Edge	-10.8942
▁revenue	-10.8942
▁Omar	-10.8943
ze	-10.8944
▁spur	-10.8944
▁salt	-10.8945
▁Kei	-10.8946
▁owners	-10.8947
▁Flower	-10.8951
▁Rhy	-10.8951
▁Cress	-10.8955
▁Bush	-10.8955
▁personality	-10.8962
▁NL	-10.8967
▁withdrawal	-10.897
▁Lane	-10.8973
▁carv	-10.8975
▁manufacturer	-10.8982
▁177	-10.8985
ga	-10.8986
▁Chas	-10.8991
▁Asian	-10.8995
▁settle	-10.8997
tion	-10.8998
▁ensu	-10.9005
▁73	-10.9022
73	-10.9027
▁Kim	-10.9029
ied	-10.9032
▁Wild	-10.9035
▁Wall	-10.9036
▁Anne	-10.9037
▁Farm	-10.9038
nell	-10.9042
▁excavations	-10.9046
▁log	-10.9051
▁wishe	-10.9054
ASA	-10.9063
▁Chen	-10.9064
▁knee	-10.9073
▁Mid	-10.9077
▁87	-10.9082
▁Ar	-10.9086
▁beam	-10.9088
▁Abbe	-10.9096
anyon	-10.9108
regon	-10.9108
▁decrease	-10.9109
saw	-10.9111
▁Goff	-10.9113
bel	-10.9114
▁91	-10.912
▁Korea	-10.9121
▁Albert	-10.9125
▁Trail	-10.9127
▁prohibit	-10.9131
▁Ten	-10.9132
▁angle	-10.9134
▁condemn	-10.9134
▁Belgi	-10.9135
▁supplement	-10.914
▁Lincoln	-10.914
▁kilometer	-10.914
▁strict	-10.914
▁obvious	-10.914
▁compliment	-10.914
▁trend	-10.9141
▁Survey	-10.9141
▁essay	-10.9141
▁Ernest	-10.9142
▁Near	-10.9142
▁closure	-10.9142
▁violation	-10.9142
▁yield	-10.9142
▁hull	-10.9143
▁rotation	-10.9143
▁negotiation	-10.9144
▁devotion	-10.9145
▁Honor	-10.9146
▁1923	-10.9146
▁Clint	-10.9146
▁cluster	-10.9147
▁fame	-10.9148
▁Harrison	-10.9148
▁58	-10.9149
▁Actor	-10.915
▁Hobb	-10.9151
▁Rick	-10.9152
▁armament	-10.9152
▁float	-10.9152
▁sang	-10.9155
▁trust	-10.9159
▁strategic	-10.9162
▁nave	-10.9162
▁Regist	-10.9163
Pa	-10.9163
▁Intern	-10.9175
▁Vera	-10.9186
▁06	-10.9188
wich	-10.9189
▁Mrs	-10.919
eng	-10.9194
▁Mill	-10.9195
lock	-10.9211
ji	-10.9213
▁Jacob	-10.9219
▁Hans	-10.9223
OC	-10.9225
▁Argentine	-10.9228
▁tackle	-10.9233
▁Pat	-10.9234
▁Rod	-10.924
▁Pre	-10.9242
mobile	-10.9242
lo	-10.9248
▁chain	-10.925
▁Bald	-10.9251
▁Ida	-10.9261
ung	-10.9261
▁da	-10.9262
▁roots	-10.9267
▁tape	-10.9278
ugu	-10.9284
orne	-10.9287
CC	-10.9291
▁citizens	-10.9297
▁cat	-10.9299
AT	-10.9304
▁Fall	-10.9304
▁pole	-10.9311
▁Lamb	-10.9312
▁loose	-10.9313
▁tooth	-10.9314
▁Poh	-10.9314
▁Min	-10.9323
▁Marlboro	-10.9325
52	-10.9336
▁chick	-10.9342
▁carbon	-10.9345
▁define	-10.9347
▁Sanskrit	-10.9348
▁Singapore	-10.9348
▁competitor	-10.9348
▁merchant	-10.9348
▁Chrono	-10.9348
▁parody	-10.9348
▁thirteen	-10.9348
▁stump	-10.9348
▁Nettle	-10.9349
▁Brigg	-10.9349
▁Where	-10.9349
▁strain	-10.9349
▁Jardin	-10.9349
▁eighteen	-10.9349
▁punishment	-10.9349
▁resolution	-10.935
▁Machine	-10.9351
▁steal	-10.9351
▁birthday	-10.9352
▁laborator	-10.9352
▁copy	-10.9353
▁execution	-10.9354
▁communist	-10.9355
▁percentage	-10.9355
▁clay	-10.9356
▁deliberate	-10.9356
▁Campbell	-10.9356
▁1830	-10.9357
▁regulation	-10.9358
▁exhibition	-10.9359
donna	-10.9359
▁environmental	-10.9359
▁tension	-10.936
▁Toge	-10.9363
▁Mer	-10.9369
▁assess	-10.9369
▁enforce	-10.937
RV	-10.937
▁WASP	-10.937
ncy	-10.9372
▁handle	-10.9372
▁766	-10.9372
▁Roy	-10.9372
▁fossil	-10.9377
▁Countr	-10.9379
▁02	-10.9381
▁Classic	-10.9383
▁prepar	-10.9396
▁84	-10.9402
▁restor	-10.9402
▁surger	-10.9404
▁rising	-10.9406
▁despi	-10.9406
▁99	-10.9408
rose	-10.941
▁Bennet	-10.9412
▁Stop	-10.9418
esi	-10.9422
▁kne	-10.9424
▁176	-10.944
38	-10.9442
▁Ace	-10.9445
▁Lost	-10.9446
▁Sony	-10.9451
▁Westm	-10.9451
▁divide	-10.9452
▁seal	-10.9453
alway	-10.9464
ceratops	-10.947
▁Sio	-10.9471
▁Marshal	-10.9473
▁Kea	-10.9474
usiness	-10.9478
▁jur	-10.9497
aid	-10.95
▁struggl	-10.9512
active	-10.9516
▁Dun	-10.9518
▁Wing	-10.9518
bai	-10.9527
tta	-10.9528
▁complicat	-10.9536
power	-10.9539
▁reader	-10.9544
▁97	-10.9544
sky	-10.9544
▁Ham	-10.9546
▁putt	-10.9549
natural	-10.955
▁volunteer	-10.955
ai	-10.9552
▁Zoo	-10.9559
▁ba	-10.956
▁archbishop	-10.9561
▁umpire	-10.9561
▁Matthew	-10.9561
▁shaft	-10.9561
▁Credit	-10.9561
▁architectural	-10.9561
▁Nevesinj	-10.9561
▁fault	-10.9561
▁Digital	-10.9561
▁semifinal	-10.9561
▁Phil	-10.9563
▁compilation	-10.9563
▁suppress	-10.9563
▁Deep	-10.9563
▁Ingre	-10.9564
▁Observer	-10.9566
ot	-10.9566
▁audition	-10.9566
manita	-10.9567
▁Belgian	-10.9567
▁celebration	-10.9568
▁Cater	-10.9568
▁ibis	-10.9568
▁programming	-10.9569
▁Magic	-10.957
NL	-10.957
▁fourteen	-10.9571
▁medal	-10.9571
▁membrane	-10.9571
ets	-10.9572
▁Syria	-10.9581
▁prett	-10.9581
bee	-10.9582
▁debt	-10.9584
▁tru	-10.9589
▁string	-10.9593
▁console	-10.9595
▁fusion	-10.9596
▁Bang	-10.9598
▁diagnos	-10.9601
nh	-10.9604
rine	-10.9613
PA	-10.9615
▁runway	-10.9615
sumption	-10.9627
▁File	-10.9629
▁margin	-10.9634
▁Are	-10.9638
▁boom	-10.964
anna	-10.9655
my	-10.9656
▁Palm	-10.9657
▁101	-10.9659
▁relations	-10.9659
ani	-10.9675
work	-10.9676
▁Antoni	-10.9683
▁urg	-10.9686
▁Plan	-10.9692
▁Mc	-10.9698
nen	-10.9699
▁recognis	-10.9703
▁genera	-10.9711
▁descend	-10.9716
▁USS	-10.9719
▁Jan	-10.972
▁acquire	-10.9725
▁logic	-10.9742
▁hearing	-10.9743
non	-10.9749
▁qualify	-10.9751
▁Rach	-10.9752
▁Alex	-10.9755
▁twentie	-10.9757
▁Form	-10.976
▁mature	-10.9761
▁Guard	-10.9768
▁Nazi	-10.9771
▁neighbor	-10.9778
▁Charlotte	-10.9778
▁Province	-10.9778
▁evident	-10.9778
▁harbour	-10.9778
▁Headquarter	-10.9778
▁Switzer	-10.9778
▁Dudley	-10.9778
▁explosive	-10.9778
▁Dynast	-10.9778
▁Hampshire	-10.9778
howitz	-10.9779
▁dubb	-10.9779
▁Columbus	-10.9779
▁venture	-10.978
▁Palestinian	-10.978
▁Upper	-10.978
▁weekend	-10.9781
▁skeleton	-10.9781
▁Freak	-10.9782
▁reverse	-10.9782
▁Wanderer	-10.9783
aide	-10.9784
▁1922	-10.9784
▁collective	-10.9786
▁characteristic	-10.9787
▁Bow	-10.9787
▁Tony	-10.9788
▁topic	-10.9788
▁advi	-10.979
▁arch	-10.979
NC	-10.9795
▁DD	-10.9795
▁investment	-10.9798
▁permitt	-10.98
▁Syd	-10.9807
▁universal	-10.9808
▁Mother	-10.981
59	-10.9811
▁culminat	-10.9814
▁motor	-10.9826
tenance	-10.9839
▁cease	-10.9849
▁69	-10.9855
live	-10.9861
▁recurr	-10.9865
▁Canning	-10.9869
▁revis	-10.9873
un	-10.9877
sberg	-10.9877
▁permissi	-10.9877
▁abuse	-10.9882
41	-10.9886
▁bare	-10.9893
▁Carlo	-10.9898
▁Ki	-10.9899
▁Ush	-10.9908
▁bombing	-10.9911
▁taste	-10.992
▁grave	-10.9922
▁jet	-10.9925
▁Champions	-10.9928
▁Stavan	-10.9931
onstruction	-10.9935
▁quote	-10.9949
▁calls	-10.9954
▁starter	-10.9963
▁Pass	-10.9964
▁Culle	-10.9967
▁update	-10.9967
▁whil	-10.9968
▁mole	-10.9969
▁Ian	-10.9973
▁snow	-10.9974
▁photo	-10.9979
▁XI	-10.9986
▁Come	-10.9986
▁Euro	-10.9987
▁Francis	-10.9989
▁translat	-10.9994
▁confront	-10.9997
▁fundamental	-11
▁Prest	-11
▁Interchang	-11.0001
▁devastat	-11.0001
▁pioneer	-11.0001
▁administrative	-11.0001
▁Indonesia	-11.0001
▁jaw	-11.0001
▁consent	-11.0001
▁Mitchell	-11.0001
▁regain	-11.0001
▁circuit	-11.0001
▁enlist	-11.0001
▁neighborhood	-11.0001
▁Hungarian	-11.0001
▁advertisement	-11.0001
▁disturbance	-11.0001
▁predominant	-11.0002
▁queen	-11.0002
▁Collection	-11.0002
▁stella	-11.0002
▁Liao	-11.0003
▁Compani	-11.0003
▁McCart	-11.0004
▁conversion	-11.0004
▁360	-11.0005
▁Number	-11.0005
▁densit	-11.0005
▁1861	-11.0006
▁reactor	-11.0006
▁hook	-11.0009
▁graduate	-11.001
▁Sora	-11.0011
▁acyclic	-11.0013
▁restriction	-11.0014
▁Tonin	-11.0015
▁inspire	-11.0016
▁Carr	-11.0017
▁Helen	-11.0017
▁Alberta	-11.0017
▁successive	-11.0017
▁Mars	-11.0022
▁Stuar	-11.0022
▁organize	-11.0029
▁steps	-11.0034
▁Sina	-11.0036
▁mayor	-11.0038
▁Pra	-11.0042
▁Movie	-11.0042
▁magnetic	-11.0047
▁laws	-11.0053
de	-11.0061
▁des	-11.0062
▁Sul	-11.0064
▁prospect	-11.0065
▁ordering	-11.007
tra	-11.0071
▁Au	-11.0075
▁Hanna	-11.0078
▁Jerem	-11.0079
▁112	-11.0089
▁finger	-11.0091
▁accommodate	-11.0108
▁bowler	-11.0108
▁Sha	-11.011
▁Antimon	-11.0111
▁Ship	-11.0113
▁disappoint	-11.0114
▁Son	-11.0127
iz	-11.0128
G	-11.0145
48	-11.015
▁Wu	-11.0152
▁Josh	-11.0162
ssex	-11.0164
▁investigat	-11.0167
▁ma	-11.0169
▁03	-11.0179
▁hole	-11.0187
▁Heri	-11.019
▁86	-11.0194
▁inde	-11.0196
SA	-11.0199
▁Ze	-11.0203
▁significan	-11.0208
▁350	-11.0219
▁animat	-11.0222
▁sq	-11.0226
▁Fur	-11.0227
▁occupy	-11.0228
▁Description	-11.0228
▁Yellow	-11.0228
▁chord	-11.0228
▁terrain	-11.0228
▁Gaelic	-11.0228
▁Hoover	-11.0228
▁Twenty	-11.0228
▁pursuit	-11.0229
▁hydrogen	-11.0229
▁Health	-11.0229
▁Metro	-11.023
▁Dahl	-11.023
▁Vander	-11.023
▁overlook	-11.023
▁synonym	-11.0231
▁inherit	-11.0231
▁gravit	-11.0231
▁Scout	-11.0231
▁illness	-11.0231
▁Arkansas	-11.0234
▁apply	-11.0234
▁Everton	-11.0234
▁Personal	-11.0236
some	-11.0236
▁revival	-11.0236
▁lifetime	-11.0239
▁loop	-11.0244
▁Food	-11.0245
▁isotope	-11.0246
▁Data	-11.0249
▁occasion	-11.0251
▁Monke	-11.0256
▁dominate	-11.026
▁tide	-11.0261
▁astronomer	-11.0264
▁par	-11.0268
▁resum	-11.0271
▁shear	-11.0273
▁Ph	-11.0274
▁Khan	-11.0275
▁sleep	-11.0275
▁Penn	-11.0281
rs	-11.0282
▁Mader	-11.0289
▁suggestion	-11.0306
▁truck	-11.031
Tu	-11.0314
▁Naza	-11.0328
▁ruler	-11.0336
▁render	-11.0343
ikk	-11.0349
▁enable	-11.0351
▁Bal	-11.0354
▁Seven	-11.0357
▁Corp	-11.0358
▁Harr	-11.0361
oyle	-11.0362
▁Mon	-11.0362
▁Centre	-11.0365
▁Cyr	-11.0366
ments	-11.037
▁Kans	-11.0385
▁Dw	-11.0392
10	-11.0399
▁Chu	-11.0401
▁revolution	-11.042
▁favorabl	-11.0426
▁nav	-11.0432
▁Norw	-11.0438
▁Wave	-11.0439
▁Hawai	-11.0453
▁Rain	-11.0457
▁cotton	-11.0459
▁Derfflinger	-11.046
▁Female	-11.046
▁Monument	-11.046
▁delegate	-11.046
▁dimension	-11.046
▁widow	-11.046
▁Palmyrene	-11.046
▁flesh	-11.046
▁Utah	-11.046
▁grandfather	-11.046
▁Cricket	-11.046
▁Bird	-11.0461
▁unclear	-11.0461
▁evolution	-11.0461
▁Wellington	-11.0461
▁dislike	-11.0461
▁Watson	-11.0461
box	-11.0462
▁partnership	-11.0462
▁competitive	-11.0464
▁Broadwa	-11.0464
▁interception	-11.0465
▁Crusader	-11.0466
ab	-11.0466
▁examination	-11.0467
▁southeaster	-11.0468
▁onward	-11.0468
▁demonstration	-11.0469
▁oxygen	-11.0469
dream	-11.0469
▁molecular	-11.0469
▁announcement	-11.0472
▁Tide	-11.0474
▁enzyme	-11.0476
▁sees	-11.0477
▁Austrian	-11.0477
▁derive	-11.0479
▁bore	-11.0481
▁1840	-11.0487
51	-11.0495
▁mineral	-11.0497
▁pain	-11.0504
▁Carmel	-11.0504
lazer	-11.0506
▁Bre	-11.0508
▁investigate	-11.0511
▁alternate	-11.0512
▁roadway	-11.0512
▁advocate	-11.0515
▁probab	-11.0518
▁der	-11.0519
▁Eve	-11.052
▁Steel	-11.0522
▁interact	-11.0524
fort	-11.0529
▁painter	-11.0532
▁Ok	-11.0532
▁continental	-11.0532
▁illustrate	-11.0534
▁react	-11.0535
▁spaces	-11.0543
▁impos	-11.0548
▁stress	-11.055
▁kings	-11.0558
▁failing	-11.0558
▁dual	-11.057
▁net	-11.0572
gen	-11.0574
▁Communit	-11.0581
▁demon	-11.0581
nel	-11.0581
▁Commons	-11.0582
▁tune	-11.0582
▁Las	-11.0585
T	-11.0589
▁pose	-11.0589
▁92	-11.0595
ken	-11.0604
▁funn	-11.0607
ative	-11.0612
▁Sand	-11.0615
▁Berti	-11.062
oming	-11.0624
ayne	-11.0628
▁ear	-11.0631
▁Historical	-11.0631
▁climb	-11.0645
▁Bur	-11.0655
idae	-11.0665
▁dri	-11.0674
▁cancel	-11.0679
▁min	-11.0681
win	-11.0682
▁Librar	-11.0697
▁administer	-11.0698
▁Eccleston	-11.0698
▁ambassador	-11.0698
▁peninsula	-11.0698
▁Bradstreet	-11.0698
▁irregular	-11.0698
▁abroad	-11.0698
▁Tokyo	-11.0698
▁anchor	-11.0698
▁liquid	-11.0698
▁Return	-11.0699
▁garner	-11.0699
▁reopen	-11.0699
▁distant	-11.0699
▁Coldrum	-11.0699
▁Vega	-11.0699
▁Federation	-11.0699
▁Cleve	-11.0699
▁Protein	-11.0699
▁dependent	-11.0699
▁Donald	-11.07
▁synagogue	-11.07
▁au	-11.07
▁songwriter	-11.07
▁symptom	-11.07
▁Baseball	-11.07
ightingale	-11.0702
▁Grace	-11.0703
▁Shim	-11.0703
▁myster	-11.0703
▁creature	-11.0704
▁beaut	-11.0704
▁Halo	-11.0705
▁Comic	-11.0705
reutz	-11.0706
▁nineteen	-11.0706
▁Batter	-11.0706
▁finale	-11.0706
▁seventeen	-11.0708
▁sack	-11.0708
▁Rhodesian	-11.0709
▁invad	-11.0711
▁timber	-11.0712
▁patient	-11.0716
▁observator	-11.0717
▁guy	-11.0719
▁woodland	-11.072
uda	-11.0722
rah	-11.0723
▁Mix	-11.0724
▁complaint	-11.0726
▁landscape	-11.0727
▁sw	-11.0727
▁galler	-11.0729
▁northeaster	-11.0733
▁golden	-11.0737
▁evolv	-11.0746
thodon	-11.0747
▁evacuate	-11.0753
▁Moon	-11.0761
▁bomber	-11.0761
▁premier	-11.0767
▁beating	-11.0768
▁170	-11.0772
▁steadi	-11.0773
▁instruction	-11.0775
▁Name	-11.0779
alsa	-11.0782
▁thu	-11.0788
▁Ett	-11.0789
place	-11.0793
▁Shortl	-11.0794
▁78	-11.08
ox	-11.08
ize	-11.0805
▁Care	-11.0806
▁vegetati	-11.081
▁Jas	-11.0811
▁demonstrate	-11.0815
▁minorit	-11.0816
▁experienc	-11.0823
▁ode	-11.0827
▁sounds	-11.083
trell	-11.0837
▁Bad	-11.0843
rich	-11.0847
▁Nine	-11.0863
▁platin	-11.0871
▁eliminate	-11.0875
WF	-11.0891
▁Unit	-11.0893
▁Maya	-11.0894
▁Chap	-11.0894
▁Male	-11.0905
▁Sept	-11.0909
06	-11.0922
▁sentiment	-11.0925
▁Neil	-11.0927
▁steep	-11.0928
▁Hell	-11.0931
▁List	-11.0933
▁belonging	-11.0934
▁scorer	-11.0938
▁Born	-11.0942
▁Margaret	-11.0942
▁Rothschild	-11.0942
▁inflict	-11.0942
▁obstacle	-11.0942
▁redesign	-11.0942
▁hamlet	-11.0942
▁propagand	-11.0942
▁Pakistan	-11.0942
▁Warrior	-11.0942
▁sugar	-11.0942
▁vault	-11.0942
▁Interstate	-11.0942
▁mortar	-11.0943
▁monk	-11.0943
▁Trond	-11.0943
▁variable	-11.0943
▁Technolog	-11.0943
▁Kyle	-11.0944
▁Baptist	-11.0945
▁epic	-11.0945
▁sitting	-11.0945
▁commitment	-11.0945
▁grain	-11.0945
▁diamond	-11.0946
▁Raja	-11.0947
▁snake	-11.0952
▁rubber	-11.0958
▁mortal	-11.0958
▁loud	-11.0959
▁Romania	-11.0966
▁ML	-11.097
▁Falls	-11.0971
▁Cambodian	-11.0972
▁Bernard	-11.0975
▁Kyra	-11.0977
▁True	-11.0987
▁PC	-11.0988
▁unna	-11.0989
▁Sh	-11.0996
Grom	-11.1006
▁probe	-11.1009
ru	-11.1009
layer	-11.1011
aster	-11.1011
berry	-11.1014
▁Dress	-11.1023
ón	-11.1023
▁Denni	-11.1025
▁suitabl	-11.1026
▁Heavy	-11.1029
▁listener	-11.1029
▁Dog	-11.1037
▁examine	-11.1037
▁slate	-11.1039
▁decid	-11.1042
▁icon	-11.1047
enous	-11.105
▁Yu	-11.1053
▁retire	-11.1055
▁Joy	-11.1058
▁Speci	-11.1059
▁dams	-11.1082
▁230	-11.1083
▁SS	-11.109
▁enabl	-11.1091
▁Win	-11.1093
▁shipment	-11.1093
▁ei	-11.1098
▁examin	-11.11
▁liner	-11.11
▁realiz	-11.1103
▁Lion	-11.1104
▁noise	-11.1113
▁Rand	-11.1117
▁Charm	-11.1124
justice	-11.1126
LB	-11.1144
▁coat	-11.1149
▁duet	-11.1152
▁Full	-11.1153
▁provision	-11.1161
▁hostil	-11.1174
aterfall	-11.1179
▁sixteen	-11.118
▁240	-11.1182
▁dealing	-11.1183
▁Chan	-11.1186
▁emerge	-11.1186
▁scrap	-11.1189
zer	-11.1191
▁neighbour	-11.1192
▁Professor	-11.1192
▁Wrapp	-11.1192
▁homosexual	-11.1192
▁immigrant	-11.1192
▁universe	-11.1192
▁warrior	-11.1192
▁explicit	-11.1192
▁hamper	-11.1192
▁Foreign	-11.1192
▁Campaign	-11.1192
▁Ultimate	-11.1192
▁mutual	-11.1193
▁reprint	-11.1193
▁Brenda	-11.1193
▁descendant	-11.1193
▁Tommy	-11.1193
▁Quiney	-11.1193
▁lumber	-11.1193
▁bombardment	-11.1194
▁commentator	-11.1194
▁Manuel	-11.1194
▁charm	-11.1194
▁vocalist	-11.1194
▁pyramid	-11.1195
▁Pirate	-11.1196
▁Bright	-11.1197
▁Morning	-11.1198
▁illustration	-11.1199
▁Litera	-11.1201
▁sweet	-11.1201
CW	-11.1202
▁Bruce	-11.1205
▁altarpiece	-11.1206
▁Trust	-11.1208
ning	-11.1213
▁Hit	-11.1213
anime	-11.1216
▁secretary	-11.1216
▁gill	-11.1218
half	-11.1221
brush	-11.1222
▁roller	-11.1222
rie	-11.1223
▁vicin	-11.1223
▁donation	-11.1224
gram	-11.1228
season	-11.1234
▁beside	-11.1238
▁dust	-11.1238
▁legac	-11.1247
▁radiati	-11.1255
▁Sub	-11.1257
▁walking	-11.1258
▁122	-11.1275
▁poly	-11.1276
▁flaw	-11.1278
▁recognise	-11.128
▁grounds	-11.1288
ace	-11.1295
CO	-11.1296
▁conventional	-11.1297
▁fighter	-11.131
▁rivers	-11.1313
▁Mantell	-11.1316
▁operational	-11.1336
▁beg	-11.1339
60	-11.1345
▁Opera	-11.1354
▁Im	-11.1365
au	-11.1367
▁o	-11.1369
▁neutral	-11.1372
▁Hellb	-11.1374
▁Mass	-11.1379
▁Europa	-11.1379
ristan	-11.138
▁fatal	-11.139
03	-11.1402
▁Kar	-11.1406
▁flie	-11.1408
egian	-11.143
▁Zanzibar	-11.1435
▁instruct	-11.1437
attle	-11.144
▁disagree	-11.1444
ck	-11.1446
▁mathematic	-11.1447
▁Social	-11.1448
▁Subsequent	-11.1449
▁Wrestling	-11.1449
▁Zagreb	-11.1449
▁aerodrome	-11.1449
▁explosion	-11.1449
▁frequenc	-11.1449
▁participant	-11.1449
▁variant	-11.1449
▁zombie	-11.1449
▁neutron	-11.1449
▁Performance	-11.1449
▁provincial	-11.1449
▁vital	-11.1449
▁knight	-11.1449
▁monster	-11.1449
▁kickoff	-11.145
▁Popular	-11.145
▁Troph	-11.145
▁odd	-11.1451
▁exploration	-11.1451
▁speculation	-11.1453
▁cutting	-11.1454
▁territorial	-11.1454
▁stain	-11.1454
▁apartment	-11.1455
▁electron	-11.1456
▁eagle	-11.1458
▁Train	-11.1463
▁disturb	-11.1463
hurst	-11.1463
▁Father	-11.1472
▁convey	-11.1474
▁reward	-11.1475
▁repeat	-11.1476
▁Fami	-11.1477
▁Fo	-11.1479
▁Urani	-11.1483
▁Hair	-11.1484
▁Medal	-11.1486
feld	-11.1487
▁Cap	-11.1487
ockey	-11.1488
▁seiz	-11.1488
▁eastward	-11.149
▁Baron	-11.149
▁faction	-11.1492
▁Span	-11.1494
▁dies	-11.1494
ac	-11.1502
dale	-11.1503
▁Wind	-11.1504
▁fir	-11.1504
▁conjuncti	-11.1509
16	-11.1515
erry	-11.1523
▁sin	-11.1524
▁experimental	-11.1524
▁Bel	-11.1526
ri	-11.1528
▁Hard	-11.1531
▁Champion	-11.1533
▁Whit	-11.1534
▁teach	-11.1536
▁Local	-11.1537
▁spott	-11.1542
▁Shel	-11.155
▁Reag	-11.155
▁Indie	-11.1567
fast	-11.1568
▁reli	-11.1573
▁Gregor	-11.1574
udo	-11.1574
rian	-11.1581
▁revolutionar	-11.1586
▁179	-11.159
▁Ariz	-11.1594
per	-11.1594
▁liter	-11.1597
▁Dance	-11.161
▁discipline	-11.1613
▁113	-11.1613
▁dispatch	-11.1616
▁Eg	-11.1619
▁illustrat	-11.1624
▁Reform	-11.1635
▁congregation	-11.1638
▁Chi	-11.164
yard	-11.1649
▁CO	-11.165
▁expense	-11.1653
▁concentrate	-11.1658
▁ho	-11.1659
▁root	-11.1667
▁220	-11.1668
▁brutal	-11.1669
▁smoke	-11.167
cut	-11.1673
▁realis	-11.1675
▁Gill	-11.1677
74	-11.1678
nie	-11.1681
rize	-11.1683
rum	-11.1686
▁Corbet	-11.1691
CU	-11.1692
▁hang	-11.1694
▁agricultur	-11.1695
▁Cre	-11.17
▁extinct	-11.1706
bar	-11.171
▁Terr	-11.1712
▁Voice	-11.1712
▁ancestor	-11.1712
▁juvenile	-11.1712
▁reagent	-11.1712
▁Shadow	-11.1712
▁turbine	-11.1712
▁Humphrey	-11.1712
▁cemeter	-11.1712
▁ceratopsian	-11.1712
▁horror	-11.1712
▁Holocaust	-11.1712
▁Carpent	-11.1712
▁junction	-11.1712
▁sibling	-11.1712
▁Navarr	-11.1712
▁definite	-11.1712
▁exile	-11.1712
▁brilliant	-11.1713
▁Rapid	-11.1713
▁pump	-11.1713
▁audio	-11.1713
▁shallow	-11.1713
▁trough	-11.1713
▁cash	-11.1714
▁Singh	-11.1715
▁Joint	-11.1715
▁intelligent	-11.1715
▁Thak	-11.1715
▁Lüt	-11.1716
▁perception	-11.1717
▁Ruler	-11.1717
▁funeral	-11.1718
▁Den	-11.1721
air	-11.1721
▁Pagan	-11.1721
▁valuable	-11.1722
▁decoration	-11.1722
▁1901	-11.1722
▁Stoke	-11.1724
▁moist	-11.1726
▁Hong	-11.1726
▁acoustic	-11.1726
▁mask	-11.1728
▁Marge	-11.1729
▁sailor	-11.1729
▁lyrical	-11.173
brew	-11.1732
▁clothes	-11.1732
▁Attack	-11.1734
▁Reine	-11.1736
▁noble	-11.1737
ery	-11.1738
ua	-11.1739
▁Justin	-11.1743
▁Clock	-11.1749
▁Books	-11.175
▁Wa	-11.175
▁villain	-11.1751
▁scar	-11.176
▁Fernande	-11.1762
▁Got	-11.1765
▁Skin	-11.1769
▁survival	-11.1772
▁Mum	-11.1779
▁chase	-11.1779
▁literal	-11.1785
▁champions	-11.1786
▁circulat	-11.1793
ya	-11.1797
eus	-11.1802
▁Aust	-11.1803
37	-11.1803
▁mill	-11.1816
▁kn	-11.1817
léti	-11.1818
ah	-11.1818
▁compose	-11.1819
▁Give	-11.1822
▁bat	-11.1822
Ch	-11.1824
▁Oak	-11.1825
▁1897	-11.1829
▁Villar	-11.1829
▁carrier	-11.1831
▁donat	-11.1833
▁Rat	-11.1834
▁Princess	-11.1839
nton	-11.1847
▁Quin	-11.1848
▁Jenn	-11.1853
▁vs	-11.1856
saurus	-11.1857
noot	-11.1858
solution	-11.1861
ries	-11.1873
▁261	-11.1874
▁Blu	-11.1875
▁fuse	-11.1876
▁Hills	-11.1885
▁105	-11.1885
scope	-11.1889
let	-11.1891
face	-11.1894
▁Alfa	-11.1895
▁quantit	-11.1898
▁Michel	-11.1902
▁pen	-11.1907
▁gathering	-11.1912
▁admit	-11.1915
▁Cuba	-11.1915
▁Mal	-11.1923
▁ratio	-11.1925
▁DS	-11.1932
v	-11.1937
▁Av	-11.1941
▁reporter	-11.1949
▁centimet	-11.1951
▁inaugura	-11.1951
▁Wins	-11.1955
▁Construct	-11.1956
va	-11.1958
▁merge	-11.1962
▁hide	-11.1964
▁Was	-11.197
▁ignor	-11.1972
▁Report	-11.1976
erto	-11.1976
▁autobiograph	-11.1982
▁Leicester	-11.1982
▁Rockefeller	-11.1982
▁celebrit	-11.1982
▁enormous	-11.1982
▁zinc	-11.1982
▁spawn	-11.1982
▁Crash	-11.1982
▁Legend	-11.1982
▁Guinea	-11.1983
▁mechanism	-11.1983
▁Graham	-11.1983
▁Cloud	-11.1983
▁gender	-11.1983
▁font	-11.1983
18	-11.1983
▁decommission	-11.1983
▁motif	-11.1983
▁rebellion	-11.1983
▁Bristo	-11.1984
▁rape	-11.1985
▁Computer	-11.1985
▁diplomatic	-11.1985
▁deput	-11.1985
▁bulk	-11.1986
▁trap	-11.1987
▁crush	-11.1987
55	-11.1989
▁mood	-11.1989
▁Yorkshire	-11.199
▁familiar	-11.1992
▁neutrino	-11.1992
▁conscious	-11.1992
▁Gie	-11.1992
▁practical	-11.1994
▁Box	-11.1995
▁Mag	-11.1999
▁Mission	-11.1999
▁Kaif	-11.2003
▁nice	-11.2011
▁Met	-11.2012
▁Montre	-11.2013
▁amid	-11.2015
ensus	-11.2015
▁serial	-11.2016
▁Lucas	-11.2027
▁decreas	-11.2027
▁parasite	-11.203
▁resolve	-11.2032
▁rays	-11.2033
▁trio	-11.2034
found	-11.2035
▁hills	-11.2035
▁Glob	-11.2037
▁kid	-11.204
▁enlarge	-11.204
▁AA	-11.2041
▁Ko	-11.2044
fish	-11.2047
▁passion	-11.2058
▁Low	-11.2058
▁Af	-11.2063
▁125	-11.2064
▁Berh	-11.2067
▁thank	-11.2067
ibi	-11.2073
▁placing	-11.2076
▁upgrade	-11.2079
▁mat	-11.2083
ière	-11.2084
NO	-11.2084
em	-11.2085
▁opin	-11.2092
▁sacrifice	-11.2096
▁hunter	-11.2096
▁performer	-11.2098
▁Russel	-11.2103
▁Studio	-11.2106
▁generate	-11.211
khed	-11.2114
▁Glas	-11.2121
▁Allie	-11.2125
▁lesson	-11.2134
▁overwhelm	-11.214
ker	-11.2151
shi	-11.2151
▁dy	-11.2164
▁Kat	-11.2168
▁mad	-11.2172
lateau	-11.2186
▁approve	-11.2196
ois	-11.2209
ives	-11.221
poli	-11.221
▁Comed	-11.2213
eteorological	-11.2215
ations	-11.2217
▁credits	-11.2235
▁155	-11.2237
▁stabili	-11.2247
▁mistake	-11.2247
▁Gardner	-11.2248
▁finance	-11.2252
▁Gut	-11.2253
ax	-11.2253
▁alphabet	-11.2258
▁batt	-11.2258
▁rubb	-11.226
▁Glanville	-11.226
▁le	-11.226
▁millimeter	-11.226
▁veteran	-11.226
▁Railroad	-11.226
▁Nevada	-11.226
▁disorder	-11.226
▁Adult	-11.226
▁Remix	-11.226
▁exterior	-11.226
▁Official	-11.226
▁staple	-11.226
▁activist	-11.226
▁Rafa	-11.226
▁guarantee	-11.2261
▁radical	-11.2261
▁Banksia	-11.2261
▁Composition	-11.2261
▁Barbarian	-11.2261
▁narrator	-11.2261
▁prototype	-11.2262
▁trunk	-11.2262
▁Hi	-11.2263
▁Hockey	-11.2263
▁scrapp	-11.2264
▁Plain	-11.2264
▁infect	-11.2264
▁Lud	-11.2265
▁Liberal	-11.2266
▁admir	-11.2267
▁Bret	-11.2267
▁Yeo	-11.2267
▁protester	-11.2268
▁1800	-11.2268
▁dodo	-11.2269
▁toxic	-11.227
▁quiet	-11.227
▁Emma	-11.2279
▁doll	-11.228
▁Mauri	-11.2282
▁handed	-11.2283
▁payment	-11.2285
▁Ruth	-11.2287
▁attraction	-11.2288
▁83	-11.2289
▁Fred	-11.229
▁witch	-11.2292
▁afford	-11.2292
ue	-11.2295
▁su	-11.2296
▁shield	-11.2296
▁191	-11.2299
▁PA	-11.2299
▁Guild	-11.2299
▁Jer	-11.2302
cock	-11.2302
lan	-11.2308
▁Gange	-11.2308
▁therap	-11.2312
▁updat	-11.2312
▁mon	-11.2316
▁customer	-11.2318
▁Fried	-11.232
iri	-11.232
▁Victor	-11.2321
▁wheel	-11.2322
▁Lead	-11.2327
▁approache	-11.2328
▁relieve	-11.2332
▁Th	-11.2332
▁None	-11.2333
▁cable	-11.2334
▁electrical	-11.2337
▁verte	-11.2338
ik	-11.234
▁wire	-11.234
amy	-11.2345
▁Galli	-11.2348
rald	-11.2354
▁invitation	-11.2357
▁rains	-11.2359
ontemporary	-11.2366
▁mis	-11.2369
EA	-11.2372
space	-11.2376
▁users	-11.2384
▁117	-11.2386
▁Peters	-11.2389
▁Happ	-11.2392
▁sword	-11.2392
▁heir	-11.2401
▁para	-11.2402
▁relocat	-11.2416
gate	-11.2418
▁oxide	-11.2421
▁hitt	-11.2423
▁minimal	-11.2425
▁dispers	-11.2426
▁Larr	-11.2428
▁parliamentar	-11.2428
▁complement	-11.2431
▁fo	-11.2432
▁genes	-11.2437
▁salar	-11.2439
▁advis	-11.2441
▁04	-11.2444
▁121	-11.2446
▁shut	-11.2447
▁Know	-11.2452
▁Pf	-11.2454
logy	-11.2456
▁collaborat	-11.2459
▁spectr	-11.246
▁surge	-11.2471
▁coaster	-11.2473
▁Trinit	-11.2475
▁danc	-11.2476
▁fled	-11.2481
▁vertic	-11.2482
27	-11.2484
▁Off	-11.2486
▁physic	-11.2486
▁denomination	-11.2495
oundation	-11.2503
▁seize	-11.2503
▁atom	-11.2505
▁outfit	-11.2506
▁acknowledg	-11.251
▁114	-11.2512
63	-11.2513
▁Lad	-11.2526
▁Austria	-11.2527
▁del	-11.253
▁Living	-11.2532
35	-11.2538
▁pictures	-11.2539
▁conquer	-11.2543
▁flash	-11.2544
▁excess	-11.2544
▁brain	-11.2544
94	-11.2545
▁Qedar	-11.2545
▁Langu	-11.2546
▁Bhairava	-11.2546
▁Faulkn	-11.2546
▁attorney	-11.2546
▁caliber	-11.2546
▁Telegraph	-11.2546
▁boyfriend	-11.2546
▁Actress	-11.2546
▁McCarthy	-11.2546
▁Neolithic	-11.2546
▁petition	-11.2546
▁brood	-11.2546
▁Defence	-11.2546
▁milk	-11.2546
▁MVP	-11.2546
▁mysterious	-11.2546
▁riot	-11.2546
▁nightingale	-11.2546
▁Small	-11.2546
▁ensemble	-11.2546
▁McEl	-11.2546
▁fixture	-11.2547
▁Ronald	-11.2547
▁fortification	-11.2547
▁bonus	-11.2547
▁drill	-11.2547
▁caval	-11.2547
▁Millenni	-11.2548
▁Ya	-11.2549
▁labour	-11.2549
▁Still	-11.255
▁Meyer	-11.2551
▁Beginn	-11.2551
▁CPS	-11.2551
▁Formation	-11.2551
▁Angelo	-11.2551
anya	-11.2552
▁Merri	-11.2554
▁1904	-11.2554
▁battlefield	-11.2555
▁Yugoslavia	-11.2557
▁incomplete	-11.2557
▁ag	-11.2558
down	-11.2559
▁Vista	-11.256
▁airfield	-11.256
▁Want	-11.256
▁Combat	-11.2561
▁declaration	-11.2561
lgu	-11.2561
▁Cultural	-11.2561
▁peer	-11.2561
▁Inc	-11.2562
▁Dead	-11.2564
Z	-11.2565
▁Devin	-11.2565
▁Guin	-11.2567
vil	-11.2567
ay	-11.2569
▁warship	-11.2571
▁Paran	-11.2571
▁striker	-11.2571
▁leak	-11.2572
▁pet	-11.2575
▁VI	-11.2581
▁sanctuar	-11.2581
▁bands	-11.2582
▁saving	-11.2589
▁acknowledge	-11.2589
▁Christoph	-11.2591
mond	-11.2595
ili	-11.2596
▁Mile	-11.2599
P	-11.2599
▁compromise	-11.26
▁portrayal	-11.26
▁fortune	-11.2603
▁populat	-11.2603
edoc	-11.2606
▁Elg	-11.2607
▁Europ	-11.2607
▁Que	-11.2609
▁realistic	-11.2609
▁mytholog	-11.261
▁linear	-11.2612
▁Lin	-11.2612
▁relate	-11.2613
▁directors	-11.2616
course	-11.2617
▁Mil	-11.2621
▁devote	-11.2623
▁Jimm	-11.2627
▁witnesse	-11.2632
▁Bloom	-11.2652
sville	-11.2652
▁1857	-11.2659
▁Sword	-11.2659
sler	-11.2663
oster	-11.2669
ō	-11.2671
tor	-11.2672
▁Brack	-11.2672
▁Works	-11.2675
▁quit	-11.2679
▁qualifi	-11.2681
▁crop	-11.269
▁borrow	-11.2697
▁Cart	-11.2699
▁Ban	-11.2699
▁Reviewer	-11.2702
▁Site	-11.2707
▁imperial	-11.271
▁mines	-11.2711
▁Sag	-11.2714
long	-11.2722
▁reviv	-11.2726
▁rebuild	-11.2731
▁ATP	-11.2745
▁Austr	-11.2748
▁induct	-11.2748
ée	-11.2749
▁Cooper	-11.2751
▁Beth	-11.2753
▁Ball	-11.2762
temporary	-11.2767
Xe	-11.2771
pa	-11.2775
▁Trade	-11.2775
▁labor	-11.2777
light	-11.2783
▁Stud	-11.2788
▁cruise	-11.2791
▁spark	-11.2799
▁displac	-11.2803
▁Right	-11.2805
▁shap	-11.2808
ci	-11.2815
▁flee	-11.2819
▁Web	-11.2825
hire	-11.2827
▁rectang	-11.2833
▁fantas	-11.2833
▁Sultan	-11.2839
▁Gabriel	-11.284
▁Kōsaku	-11.284
▁Mahesh	-11.284
▁McLa	-11.284
▁Retriev	-11.284
▁sweep	-11.284
▁rendition	-11.284
▁stanza	-11.284
▁Support	-11.284
▁prevail	-11.284
▁limestone	-11.284
▁scenario	-11.284
▁Present	-11.284
▁sediment	-11.284
▁Doctor	-11.284
▁Gladstone	-11.284
livan	-11.284
▁naked	-11.284
▁Nichola	-11.284
▁landmark	-11.284
▁Leban	-11.2841
▁judo	-11.2841
▁rejoin	-11.2841
▁census	-11.2842
▁alarm	-11.2842
▁careful	-11.2843
▁guitarist	-11.2844
▁chest	-11.2844
▁genuine	-11.2845
▁summon	-11.2845
▁Bergen	-11.2845
erland	-11.2846
▁supreme	-11.2846
96	-11.2847
▁Día	-11.2848
▁friendship	-11.2849
▁precise	-11.2849
▁Andrea	-11.285
▁1848	-11.2851
▁crack	-11.2853
▁persuade	-11.2854
▁explor	-11.2854
▁mild	-11.2856
▁Rover	-11.2856
▁rent	-11.2857
▁Terroris	-11.2859
▁parade	-11.2859
▁Ground	-11.2861
▁Belt	-11.2863
▁matur	-11.2868
olence	-11.2869
▁ordinar	-11.2876
▁Cor	-11.2876
▁limb	-11.2879
▁sensitive	-11.2884
▁metric	-11.2884
▁chemist	-11.289
▁explorer	-11.289
ack	-11.2892
▁Medi	-11.2892
▁Yama	-11.2898
▁bi	-11.2899
▁exclud	-11.29
game	-11.2903
▁poetic	-11.2907
NES	-11.2912
▁Colon	-11.2912
▁welcome	-11.2915
▁arrange	-11.2923
▁adequate	-11.2934
▁Poet	-11.2937
▁01	-11.2937
▁dropping	-11.2942
▁aisle	-11.295
die	-11.2951
▁Musical	-11.296
▁tombs	-11.2968
▁immigrati	-11.2969
soft	-11.297
▁Shaw	-11.2972
ergy	-11.2975
▁Julian	-11.2976
▁Crow	-11.298
▁Rhode	-11.2983
▁sat	-11.2987
▁Barne	-11.2988
ole	-11.2994
▁solv	-11.3
▁Aircraft	-11.3001
▁Arn	-11.3016
▁invite	-11.3022
▁poison	-11.3022
▁emphasize	-11.3023
▁Jose	-11.3025
hio	-11.3028
▁Wis	-11.3029
▁insert	-11.3032
▁upgrad	-11.3039
▁Dick	-11.304
▁taw	-11.3043
▁Imb	-11.3053
▁Yang	-11.3055
▁Moro	-11.306
▁Vic	-11.3064
book	-11.3064
▁transcription	-11.3065
▁Hump	-11.3068
▁Note	-11.3072
entral	-11.3073
▁accidental	-11.3076
▁Glass	-11.3077
49	-11.3084
ib	-11.3086
▁seeming	-11.3087
▁Cha	-11.3089
▁Goth	-11.309
organ	-11.3095
smith	-11.3097
▁pin	-11.3106
▁Mh	-11.3108
bridge	-11.3111
bow	-11.3115
▁prefer	-11.3115
gna	-11.3116
▁remind	-11.3119
▁Character	-11.3126
▁EP	-11.3126
▁chronic	-11.3129
▁formula	-11.3133
▁Biograph	-11.3134
tact	-11.3135
ept	-11.3135
edell	-11.3136
▁Gib	-11.314
▁humor	-11.3141
▁Uyghur	-11.3143
▁ghost	-11.3143
▁hygrometricu	-11.3143
▁neglect	-11.3143
▁nephew	-11.3143
▁velocit	-11.3143
▁vulnerab	-11.3143
▁Saxon	-11.3143
▁ceiling	-11.3143
▁Napoleon	-11.3143
▁Constitution	-11.3143
▁conservative	-11.3143
▁Raymond	-11.3143
▁Taxonom	-11.3143
▁rumor	-11.3143
▁puma	-11.3143
▁romance	-11.3143
▁drift	-11.3143
▁Total	-11.3143
▁blend	-11.3143
▁favourite	-11.3144
▁Philippine	-11.3144
▁flock	-11.3144
▁Darwin	-11.3144
▁Brazilian	-11.3145
▁Malaysia	-11.3145
▁ensur	-11.3145
▁Assyrian	-11.3145
▁stingray	-11.3145
▁unrest	-11.3146
▁hint	-11.3146
▁counterpart	-11.3146
▁Grant	-11.3147
▁Brother	-11.3147
▁scholarship	-11.3147
▁domain	-11.3147
▁button	-11.3147
▁descent	-11.3148
▁metallic	-11.3148
▁fulfill	-11.3148
▁FIT	-11.3148
▁Damage	-11.3151
▁deployment	-11.3153
▁Pam	-11.3153
▁recreational	-11.3157
▁strikeout	-11.3157
▁distribute	-11.3157
▁barrel	-11.3158
▁Pete	-11.3159
▁Colombia	-11.3159
atic	-11.316
▁wake	-11.3163
▁Elli	-11.3164
▁Officer	-11.3165
▁Todd	-11.3166
▁Harris	-11.317
▁Level	-11.3172
▁gray	-11.3172
ges	-11.3174
▁opt	-11.3176
▁migration	-11.3177
▁sic	-11.3178
▁lion	-11.3178
▁Nichols	-11.3179
▁Dar	-11.3183
▁Merc	-11.3184
▁Month	-11.3185
▁commemorat	-11.3187
▁collaps	-11.3188
▁excit	-11.3191
▁fa	-11.3195
▁Ran	-11.3195
▁Liz	-11.3203
iya	-11.3209
▁Dum	-11.3214
▁Marl	-11.322
▁Bod	-11.3222
▁Set	-11.3224
▁Chop	-11.3229
▁Senat	-11.3234
▁Tr	-11.3238
▁Sri	-11.3238
▁Dai	-11.324
▁Die	-11.3242
▁Ti	-11.3242
▁functional	-11.3246
ide	-11.325
▁gay	-11.3252
jan	-11.3264
▁polic	-11.3275
▁Pok	-11.3275
▁Anna	-11.3278
▁wrestl	-11.3279
aven	-11.3279
▁Kathe	-11.3279
MS	-11.3283
▁Edi	-11.3283
▁banks	-11.3284
▁Hop	-11.3287
▁Boat	-11.3297
▁backward	-11.3297
opical	-11.3297
▁solve	-11.33
▁Let	-11.3301
▁Bor	-11.3301
▁Marsh	-11.3301
▁tempo	-11.3302
ky	-11.3305
▁Keys	-11.331
▁Fly	-11.331
▁Ech	-11.3311
▁fil	-11.3312
erman	-11.3322
▁Caval	-11.3322
▁commence	-11.3332
▁literat	-11.3339
consi	-11.334
wall	-11.3357
▁Symphon	-11.3359
▁coincide	-11.336
und	-11.3362
▁123	-11.3362
▁Swede	-11.3365
▁aggregate	-11.3369
itz	-11.337
Chains	-11.3373
venge	-11.3374
ea	-11.3376
▁relat	-11.3377
▁Johnn	-11.3381
take	-11.3382
lster	-11.3383
▁Choi	-11.3385
oz	-11.3388
▁Sal	-11.3395
▁sheet	-11.3396
▁astronom	-11.3406
ston	-11.3409
▁transmitt	-11.3411
ike	-11.3421
▁Say	-11.3421
▁habit	-11.3425
▁waste	-11.3429
lia	-11.3438
pack	-11.3439
▁Highland	-11.344
AV	-11.344
90	-11.3445
▁Program	-11.345
▁Ganganelli	-11.3455
▁guerrilla	-11.3455
▁mirror	-11.3455
▁harsh	-11.3455
▁proclaim	-11.3455
▁Vishnu	-11.3455
▁gospel	-11.3455
▁pulp	-11.3455
▁palace	-11.3455
▁prestig	-11.3455
▁secular	-11.3455
▁radar	-11.3455
▁Electronic	-11.3456
▁outcome	-11.3456
▁comprehensive	-11.3456
gomer	-11.3456
▁Concert	-11.3457
▁consult	-11.3457
▁outstanding	-11.3458
▁Secur	-11.3458
▁Cadm	-11.3458
▁dawn	-11.3459
▁Apart	-11.3459
▁casemate	-11.3459
▁particle	-11.346
▁Medical	-11.346
▁trench	-11.346
▁rivals	-11.346
▁Sister	-11.3461
▁pp	-11.3461
▁Tong	-11.3462
▁737	-11.3462
▁Cadet	-11.3462
▁muscle	-11.3464
▁revision	-11.3464
▁conviction	-11.3465
▁interrupt	-11.3465
▁Outside	-11.3465
▁amaz	-11.3467
▁Mariah	-11.3468
▁operator	-11.3468
▁participation	-11.347
▁terrorist	-11.347
▁boiler	-11.3472
▁collector	-11.3475
▁hate	-11.3477
▁bread	-11.3478
▁Style	-11.3479
▁organic	-11.3481
▁Fez	-11.3482
adheer	-11.3486
▁Memor	-11.3493
▁Gabba	-11.3493
42	-11.3495
▁circular	-11.3496
▁hung	-11.3497
▁Sidon	-11.3499
▁Feeling	-11.35
▁Je	-11.35
▁relevan	-11.3501
▁Gil	-11.3501
▁shortage	-11.3501
▁antiquit	-11.3502
▁clergy	-11.3503
▁Arika	-11.3506
▁Platt	-11.3507
▁presum	-11.3512
▁Aki	-11.3514
▁concentrat	-11.3518
▁Kenn	-11.3519
ourne	-11.352
▁mini	-11.3522
ada	-11.3522
▁indirect	-11.3522
▁Albi	-11.3524
argas	-11.3528
▁bombs	-11.3529
▁subtr	-11.3531
▁Annal	-11.3532
pty	-11.3534
▁Wallac	-11.3537
▁corpse	-11.3538
▁corresponding	-11.3538
▁Rama	-11.3542
▁backing	-11.3543
▁tent	-11.3544
▁Karl	-11.3546
▁Colonie	-11.355
▁Gal	-11.3551
▁rap	-11.3556
▁Shu	-11.3557
▁Cro	-11.3568
▁Large	-11.3571
▁sketch	-11.3575
▁supervis	-11.3579
▁DE	-11.358
▁establishe	-11.3583
ama	-11.3592
▁overwhelming	-11.3592
raid	-11.3594
▁bold	-11.3595
ef	-11.3602
king	-11.3615
tress	-11.3618
▁sight	-11.362
▁Jai	-11.3622
▁ascend	-11.3628
▁Les	-11.363
▁mac	-11.3632
▁Map	-11.3634
▁bias	-11.3635
▁commissioner	-11.3636
echo	-11.3638
▁Members	-11.3639
▁enhance	-11.3648
dolen	-11.3651
lix	-11.3657
▁NCA	-11.3661
▁separat	-11.3664
ami	-11.3675
zow	-11.3677
▁br	-11.3687
scrib	-11.3694
▁cooperati	-11.3703
▁trader	-11.3704
▁Joan	-11.371
car	-11.3713
▁beak	-11.3718
▁Christians	-11.3719
▁Have	-11.3722
ction	-11.3722
▁Publish	-11.3724
▁Univers	-11.3728
▁angr	-11.3731
▁revers	-11.3732
▁Qi	-11.3736
▁blockade	-11.3737
▁Pitts	-11.3745
▁feud	-11.3746
▁gene	-11.3754
▁pursu	-11.3755
▁Alger	-11.3755
▁Ur	-11.3759
▁Cob	-11.376
▁1200	-11.3761
att	-11.3764
▁speculate	-11.3767
holm	-11.3767
unes	-11.3769
▁contradict	-11.377
▁Ola	-11.377
▁clip	-11.3774
▁trait	-11.3775
astra	-11.3775
▁commerc	-11.3777
▁grasse	-11.3778
▁Parachut	-11.3778
▁counterattack	-11.3778
▁disciple	-11.3778
▁elephant	-11.3778
▁coffee	-11.3778
▁collision	-11.3778
▁ornament	-11.3778
▁Lorenz	-11.3778
▁remake	-11.3778
▁overcome	-11.3778
▁Regard	-11.3778
▁stalk	-11.3778
▁Panzer	-11.3778
▁uneven	-11.3778
▁incursion	-11.3778
▁demographic	-11.3778
▁Tribble	-11.3778
▁Urban	-11.3778
▁telephone	-11.3778
▁framework	-11.3779
▁civilization	-11.3779
▁alliance	-11.3779
▁elite	-11.378
▁desperate	-11.378
▁virtue	-11.378
▁Edition	-11.3781
▁divert	-11.3781
▁Archer	-11.3781
▁Dawn	-11.3781
▁Buddhist	-11.3782
▁calm	-11.3782
▁plumage	-11.3783
▁confrontation	-11.3784
▁relay	-11.3784
▁Stew	-11.3785
▁weakness	-11.3785
▁attendance	-11.3786
▁Ful	-11.3786
▁Mail	-11.3786
▁Jenkins	-11.3786
▁Kick	-11.3788
▁reminiscen	-11.3788
▁unexpected	-11.3789
racing	-11.379
▁intervention	-11.3791
▁coastline	-11.3793
ovac	-11.3796
▁Boom	-11.3797
▁Trial	-11.3804
▁abundance	-11.3805
▁interne	-11.3805
▁tear	-11.3806
▁Loos	-11.3809
▁nominate	-11.3811
burgh	-11.3815
▁Flow	-11.3817
▁stole	-11.3818
▁Beau	-11.3818
▁Rena	-11.3821
▁stern	-11.3821
▁arise	-11.3824
esque	-11.3832
▁duti	-11.3837
▁synthesis	-11.384
▁Bran	-11.3844
▁ambition	-11.3845
full	-11.3846
ora	-11.3852
▁Crab	-11.3852
▁lamp	-11.3853
▁Mint	-11.3856
▁Abd	-11.3857
▁printing	-11.3858
twal	-11.3859
▁bath	-11.386
▁repli	-11.3861
AU	-11.3869
▁ward	-11.3869
▁Northwest	-11.387
▁sum	-11.3873
▁Mov	-11.3875
fire	-11.3877
abad	-11.3877
▁pest	-11.388
ec	-11.3883
▁cannon	-11.3891
▁slot	-11.3894
▁Breed	-11.3903
▁tier	-11.3904
▁ignore	-11.3909
▁Davies	-11.3909
▁beds	-11.3918
hren	-11.3921
▁identi	-11.3924
▁Ari	-11.3932
▁fl	-11.3935
▁shoe	-11.3938
▁Gao	-11.394
▁IA	-11.394
▁troop	-11.3943
room	-11.3946
trapping	-11.3957
28	-11.3959
▁cameo	-11.3961
rtillery	-11.3963
tail	-11.3963
▁envelope	-11.3967
▁arena	-11.3967
▁Jami	-11.3973
▁calculat	-11.3974
appen	-11.3977
▁wet	-11.3979
▁imaginati	-11.3979
▁op	-11.3981
▁Motor	-11.3982
▁ramp	-11.3985
▁averag	-11.3986
▁Janet	-11.399
▁exceed	-11.3991
▁fitting	-11.3993
SU	-11.3996
▁captiv	-11.3998
▁Indu	-11.4
▁jam	-11.4002
▁nose	-11.4002
lies	-11.4003
duction	-11.4004
ock	-11.4004
ME	-11.4005
▁Var	-11.4011
▁Start	-11.4012
▁Sean	-11.4018
▁spelling	-11.402
▁underst	-11.4024
burg	-11.4027
▁Sport	-11.4034
▁activat	-11.4036
bbie	-11.404
02	-11.404
▁remarkabl	-11.4041
▁perceive	-11.4045
▁phenomen	-11.4047
▁surpass	-11.4047
▁bull	-11.4059
new	-11.4061
lew	-11.4063
til	-11.4063
▁binar	-11.4064
▁Fif	-11.4071
▁Wikipedia	-11.408
▁Inside	-11.4082
▁manufacture	-11.4082
hill	-11.4085
▁ap	-11.4088
▁Airb	-11.4089
ín	-11.4094
▁Ber	-11.4098
▁Campbel	-11.4099
▁MP	-11.4101
▁seed	-11.4101
abilit	-11.4102
▁strange	-11.4102
▁Voyage	-11.4104
xecutive	-11.4109
▁Finn	-11.411
▁Expedition	-11.4111
▁Archbishop	-11.4111
▁Ferdinand	-11.4111
▁Kaimanawa	-11.4111
▁abundant	-11.4111
▁proxim	-11.4111
▁solitaire	-11.4111
▁remote	-11.4111
▁Representative	-11.4111
▁abolish	-11.4111
▁memoir	-11.4111
▁Commodore	-11.4111
▁intensify	-11.4111
▁marble	-11.4111
▁harvest	-11.4111
▁PopMa	-11.4112
▁legislature	-11.4112
▁Student	-11.4112
▁cream	-11.4112
▁Flag	-11.4112
▁external	-11.4112
▁navigation	-11.4113
▁Cemet	-11.4113
▁lifestyle	-11.4113
▁Leinster	-11.4113
▁Yoko	-11.4114
▁Northumb	-11.4114
▁premise	-11.4115
▁throat	-11.4116
▁tin	-11.4117
▁meat	-11.4117
▁anonymous	-11.4117
▁Talk	-11.4117
▁Bi	-11.4117
▁Tang	-11.4118
▁Amylostere	-11.4118
▁Liberty	-11.4118
▁orange	-11.412
▁Clear	-11.412
▁RA	-11.4121
▁alert	-11.4122
▁Clement	-11.4123
▁Curtis	-11.4124
▁Chance	-11.4125
▁RNA	-11.4125
▁accusation	-11.4126
▁dig	-11.4127
▁specialist	-11.4127
▁Forb	-11.4127
▁Lang	-11.4127
▁gunner	-11.4128
▁volunteers	-11.4129
▁Mitsu	-11.4129
▁efficient	-11.413
▁recommendation	-11.4131
▁Market	-11.4131
▁106	-11.4132
▁Fear	-11.4133
▁uncle	-11.4134
▁Pesh	-11.4137
▁Former	-11.4137
▁manual	-11.4139
▁antagonist	-11.4139
▁Vol	-11.4139
▁moor	-11.414
▁Clair	-11.4142
▁163	-11.4142
▁boss	-11.4143
uskh	-11.4147
▁Tzu	-11.4153
lando	-11.4155
▁tough	-11.4161
ardo	-11.4163
▁ambush	-11.4167
▁Lui	-11.4168
▁inventor	-11.4172
▁Va	-11.4176
▁limitation	-11.4176
▁ease	-11.4176
▁Gross	-11.4177
▁readi	-11.4192
ological	-11.4194
▁cu	-11.4196
▁taxi	-11.4198
▁Shan	-11.42
▁conifer	-11.42
▁Had	-11.4201
▁toleran	-11.4202
▁pipe	-11.4203
▁lit	-11.4204
▁108	-11.4211
▁Mann	-11.4216
▁Sche	-11.4221
▁131	-11.4229
Nichol	-11.4235
▁Exe	-11.4237
inus	-11.4238
▁texture	-11.4241
▁Mayor	-11.4241
▁129	-11.4241
▁allocat	-11.4249
ap	-11.4251
leans	-11.4256
▁slip	-11.4257
arrow	-11.4263
music	-11.427
ender	-11.4274
▁Kit	-11.4285
▁Origin	-11.4301
li	-11.4313
▁Cher	-11.4314
▁pla	-11.4327
▁wage	-11.4329
▁Delan	-11.4331
nmark	-11.4332
▁balls	-11.4347
▁Trans	-11.4355
21	-11.4356
cher	-11.4357
ubspecies	-11.4358
ris	-11.4365
▁Berg	-11.4366
▁Leo	-11.4366
▁aside	-11.4368
▁Administrati	-11.4371
uchi	-11.4372
▁Az	-11.4375
▁terrace	-11.4376
▁Sis	-11.4379
uous	-11.4387
71	-11.4388
ene	-11.4391
▁confiden	-11.4409
▁curv	-11.4411
▁plague	-11.4415
▁Blues	-11.4417
mus	-11.4424
▁prompting	-11.4425
hrie	-11.4431
▁Importan	-11.4435
▁integrat	-11.4437
▁Fu	-11.4438
▁tract	-11.4438
▁Robin	-11.4438
nce	-11.4446
▁tutor	-11.4455
▁bronze	-11.4456
▁militia	-11.4456
▁fierce	-11.4456
▁incredibl	-11.4456
▁parrot	-11.4456
▁recipe	-11.4456
▁recount	-11.4456
▁Generation	-11.4456
▁blind	-11.4456
▁debri	-11.4456
▁repertoire	-11.4456
▁Diamond	-11.4456
▁flame	-11.4456
▁corridor	-11.4456
▁harbor	-11.4456
▁fluid	-11.4456
▁Draft	-11.4456
▁decisive	-11.4456
▁correspondence	-11.4456
▁lawsuit	-11.4456
▁gorilla	-11.4457
▁Moritz	-11.4457
▁Ferrari	-11.4457
▁coalition	-11.4457
▁routine	-11.4457
▁Theater	-11.4458
▁Judith	-11.4458
▁signature	-11.4458
▁Slea	-11.4459
▁uncover	-11.4459
▁conquest	-11.4459
▁SEC	-11.4459
▁Industrial	-11.4459
▁Metropolitan	-11.446
▁barrack	-11.446
▁Destroyer	-11.446
▁hurt	-11.446
▁crucial	-11.4461
▁criticize	-11.4462
▁Capital	-11.4462
▁Turkey	-11.4462
▁crusader	-11.4463
▁excellent	-11.4464
▁extraordinar	-11.4465
▁outlet	-11.4466
▁1893	-11.4467
▁Meta	-11.4468
▁dull	-11.4468
▁stake	-11.447
▁thread	-11.4472
mouli	-11.4474
▁Lithuanian	-11.4475
▁automatic	-11.4475
owski	-11.4476
▁expectation	-11.4479
▁Tape	-11.448
▁mistaken	-11.4481
▁translate	-11.4481
▁plantation	-11.4491
war	-11.4492
▁Rook	-11.4492
▁eligib	-11.4493
▁slipp	-11.4495
emic	-11.4495
▁symbolic	-11.45
▁affection	-11.4501
▁Adrian	-11.4505
▁hence	-11.4514
▁Tho	-11.4515
000	-11.4517
▁ITV	-11.452
▁Intelligence	-11.4522
jo	-11.4524
▁dressing	-11.4526
▁Clay	-11.4528
▁Ru	-11.453
▁license	-11.453
▁Berk	-11.4534
▁conceiv	-11.4535
23	-11.4541
desh	-11.4544
▁marrie	-11.4551
▁978	-11.4555
▁riff	-11.4558
▁Frankl	-11.4564
▁goat	-11.4564
utum	-11.4566
▁Robins	-11.4567
ake	-11.458
▁facilitate	-11.458
▁Thom	-11.4586
▁ministers	-11.4587
grid	-11.459
▁tactical	-11.4592
▁Twins	-11.4598
▁princess	-11.4607
▁Grec	-11.461
▁Ow	-11.4617
▁screens	-11.463
▁torpedoe	-11.4633
player	-11.4638
ML	-11.465
▁sick	-11.465
ita	-11.4651
▁partners	-11.4653
akim	-11.4659
▁Crim	-11.4664
▁loyalt	-11.4666
▁Tor	-11.4671
▁elevat	-11.4672
▁hurdle	-11.4674
▁consum	-11.4678
▁Kin	-11.4682
ero	-11.4684
▁unstab	-11.4684
▁informal	-11.4687
▁Jeremi	-11.4689
▁Qu	-11.4691
▁dubi	-11.4693
ise	-11.4696
▁Chamber	-11.4704
▁breast	-11.4707
▁Reserve	-11.4708
ul	-11.4714
▁bite	-11.4715
▁advocat	-11.4733
▁spike	-11.474
mach	-11.4746
▁rout	-11.4747
▁Brand	-11.4748
▁prefect	-11.4749
▁Mole	-11.475
▁resume	-11.4754
▁retail	-11.4754
▁Ford	-11.4754
▁Bobb	-11.4755
▁102	-11.4758
▁cats	-11.4759
FL	-11.476
born	-11.4776
▁commit	-11.4781
jin	-11.4789
▁165	-11.479
▁Anton	-11.4791
▁Half	-11.4793
▁Lithuania	-11.4794
▁pad	-11.4796
ountain	-11.4798
▁Cruise	-11.4806
▁intercept	-11.4807
▁Condom	-11.4812
▁ANZAC	-11.4813
▁Religio	-11.4813
▁confluence	-11.4813
▁Advance	-11.4813
▁Anselm	-11.4813
▁terribl	-11.4813
▁gendarme	-11.4813
▁swallow	-11.4813
▁Horizon	-11.4813
▁accent	-11.4813
▁horizontal	-11.4813
▁Current	-11.4813
▁Ojibw	-11.4813
▁burrow	-11.4813
▁hiatus	-11.4813
▁Chemical	-11.4813
▁stunt	-11.4813
▁mRNA	-11.4813
▁satire	-11.4814
▁humanitarian	-11.4814
▁output	-11.4814
▁discard	-11.4814
▁missile	-11.4814
▁pagoda	-11.4814
▁telescope	-11.4814
▁breakdown	-11.4815
▁trademark	-11.4815
▁trigger	-11.4815
▁medic	-11.4815
▁Element	-11.4815
▁Gerald	-11.4815
▁fat	-11.4815
▁invest	-11.4815
▁Levin	-11.4816
▁Leon	-11.4816
▁Round	-11.4817
▁uprising	-11.4817
▁Boca	-11.4817
star	-11.4817
▁screenplay	-11.4818
▁silk	-11.4818
▁Meri	-11.4818
▁servant	-11.4818
▁presbyterian	-11.4819
▁speculat	-11.4819
▁dug	-11.482
▁Suez	-11.482
▁shout	-11.482
▁arsenal	-11.482
▁insult	-11.482
▁Feld	-11.4821
▁shall	-11.4821
▁drummer	-11.4822
PF	-11.4824
▁sh	-11.4825
▁progressive	-11.4825
▁estuar	-11.4826
▁Yet	-11.4827
▁grassland	-11.4827
▁glider	-11.483
▁Analys	-11.4831
▁everyday	-11.4831
ions	-11.4832
▁statute	-11.4832
▁exceptional	-11.4835
▁subordinate	-11.484
▁focuse	-11.4842
▁sulfide	-11.4843
▁reflection	-11.4843
▁attractive	-11.4844
▁melt	-11.4845
▁Crush	-11.4846
▁Dunn	-11.4847
▁deny	-11.4847
▁Shang	-11.4848
sboro	-11.4849
▁remixes	-11.485
▁pleas	-11.485
▁imp	-11.4851
▁Sher	-11.4853
▁Walk	-11.4854
▁bush	-11.4862
▁Lar	-11.4864
▁Timb	-11.4868
▁Ferry	-11.4869
we	-11.4869
▁baron	-11.4875
▁FI	-11.4878
▁Found	-11.4878
wick	-11.4881
han	-11.4884
▁Manager	-11.4889
ella	-11.4896
▁Vette	-11.4897
▁Sch	-11.4903
▁albe	-11.4904
igon	-11.4904
▁Stak	-11.4905
▁shrub	-11.4915
▁151	-11.4917
▁Kho	-11.4919
▁marker	-11.4921
con	-11.4921
▁intentional	-11.4929
▁lad	-11.493
cko	-11.4932
medu	-11.4933
▁bio	-11.4933
▁Coach	-11.4938
▁Pear	-11.4943
▁Inde	-11.4945
world	-11.4956
▁Nik	-11.496
▁Deal	-11.496
vi	-11.4961
avage	-11.4965
obra	-11.4969
▁twist	-11.4975
▁carving	-11.4981
▁bypass	-11.4983
▁disguise	-11.4983
▁Fisher	-11.4985
▁characteris	-11.4992
▁battles	-11.4994
▁specializ	-11.4995
arious	-11.4996
tt	-11.5
▁empt	-11.5001
▁tonne	-11.5001
alph	-11.5006
▁Sang	-11.5006
▁Copi	-11.5009
▁Control	-11.5014
▁patch	-11.5026
illan	-11.5031
arian	-11.5032
▁Jewel	-11.5032
▁Ly	-11.5039
pe	-11.5052
▁Roth	-11.5052
▁Observa	-11.5061
▁Thi	-11.5066
nburg	-11.5067
▁litter	-11.507
▁EU	-11.5074
lar	-11.5075
▁Barbar	-11.5079
ridge	-11.5083
▁spine	-11.5083
▁Gaz	-11.5085
▁Gree	-11.51
▁152	-11.5112
▁invent	-11.5112
end	-11.5119
aux	-11.512
▁reinforc	-11.5121
emble	-11.5131
▁mock	-11.5136
▁jewel	-11.5136
ello	-11.5136
IV	-11.5136
ased	-11.5137
▁licens	-11.5138
▁Isla	-11.5141
▁hid	-11.5141
▁Hawk	-11.5142
▁stepp	-11.5146
ja	-11.515
timer	-11.5151
▁resist	-11.5152
▁Stars	-11.5154
▁Xe	-11.5154
▁Cam	-11.5157
▁summar	-11.5159
▁notion	-11.5159
▁gang	-11.5161
taker	-11.5161
▁118	-11.5165
OT	-11.5166
che	-11.5168
dad	-11.5171
▁vers	-11.5172
▁Sin	-11.5174
ura	-11.5174
uve	-11.5176
▁harm	-11.5177
▁pink	-11.5179
▁stall	-11.5179
▁overlap	-11.5179
▁Broad	-11.518
▁Pay	-11.5181
▁Consequent	-11.5184
▁Loyalsock	-11.5184
▁Scandinavia	-11.5184
▁critique	-11.5184
▁hemmema	-11.5184
▁junta	-11.5184
▁Pioneer	-11.5184
▁drown	-11.5184
▁jealous	-11.5184
▁voyage	-11.5184
▁salmon	-11.5184
▁Recreation	-11.5184
▁kitchen	-11.5184
▁conceal	-11.5184
▁jail	-11.5184
▁explanation	-11.5184
▁silent	-11.5184
▁leap	-11.5184
▁facult	-11.5184
▁adjust	-11.5184
▁Nashville	-11.5184
▁Bronco	-11.5184
▁prolong	-11.5184
▁profound	-11.5184
▁Zhang	-11.5184
▁capabilit	-11.5184
▁foul	-11.5184
▁viewpoint	-11.5185
▁sitcom	-11.5185
▁annex	-11.5185
▁leather	-11.5185
▁Staff	-11.5185
▁Hospitaller	-11.5185
▁Phillip	-11.5185
▁outlaw	-11.5185
▁peaceful	-11.5186
▁pour	-11.5187
stroke	-11.5187
▁fumble	-11.5187
▁algorithm	-11.5187
▁Emil	-11.5187
▁victorious	-11.5187
▁mansion	-11.5189
▁Fruit	-11.5189
▁venom	-11.5189
▁racial	-11.5189
▁Felicia	-11.5189
▁sanction	-11.5189
▁separation	-11.5189
▁invention	-11.519
▁web	-11.5191
▁Melb	-11.5191
▁Franz	-11.5192
▁swamp	-11.5192
▁sect	-11.5194
▁luminosit	-11.5194
▁resignation	-11.5195
▁chronicle	-11.5195
▁Hur	-11.5197
▁Normand	-11.5197
▁Orton	-11.5197
▁1863	-11.5198
▁funk	-11.5199
▁burst	-11.5199
▁spokes	-11.5199
▁alteration	-11.5199
▁heaven	-11.5202
▁dirt	-11.5205
uenos	-11.5206
ile	-11.5206
▁Author	-11.5209
wright	-11.5209
▁archipelago	-11.521
▁nuclei	-11.5211
▁proof	-11.5215
▁Fund	-11.5217
▁intimate	-11.5217
nam	-11.5218
itis	-11.522
▁Manor	-11.5221
LC	-11.5227
fth	-11.5227
weight	-11.5229
▁rocket	-11.523
▁kiss	-11.523
▁constitute	-11.523
▁Valentin	-11.5231
▁prevalen	-11.5232
▁Kai	-11.5232
aceae	-11.5232
▁Chile	-11.5233
▁pore	-11.5241
▁instrumental	-11.5241
▁besieg	-11.5241
▁Hast	-11.5244
▁Wang	-11.5244
▁stag	-11.5248
▁spann	-11.5251
psis	-11.5257
▁perceiv	-11.5258
▁philosopher	-11.5263
ores	-11.5263
▁companion	-11.5265
▁quot	-11.5272
▁fade	-11.5273
▁winners	-11.5274
▁Pit	-11.5276
▁censor	-11.5279
▁Hond	-11.5285
tis	-11.5289
▁Pal	-11.5293
▁Kus	-11.5293
▁confident	-11.53
▁depress	-11.53
▁Cave	-11.5303
▁alcohol	-11.5304
oyful	-11.5305
▁Domna	-11.5305
▁dancer	-11.5312
▁Jama	-11.5318
▁Parks	-11.5318
ow	-11.5321
▁heading	-11.5322
uzzi	-11.5324
▁Ker	-11.5331
▁Concept	-11.5332
▁Theme	-11.5339
limit	-11.5341
▁asset	-11.5358
26	-11.5362
bo	-11.5363
ni	-11.5365
▁Eps	-11.537
▁wreck	-11.5376
▁Gall	-11.5377
▁accompanie	-11.5378
▁frontal	-11.5385
acre	-11.5386
▁Harsha	-11.5387
▁AL	-11.5389
▁electro	-11.539
▁cur	-11.5392
▁Escap	-11.5398
ged	-11.54
of	-11.5402
▁Shin	-11.5417
▁Horn	-11.5418
▁builder	-11.5419
chi	-11.542
owing	-11.542
▁1.	-11.5424
ghan	-11.5426
▁Cu	-11.5431
inaw	-11.5431
▁align	-11.5432
▁Make	-11.545
▁accord	-11.545
▁et	-11.545
ennis	-11.5453
▁Call	-11.5456
▁Writ	-11.5458
▁cure	-11.5459
▁Winter	-11.5461
zzo	-11.5463
▁Raid	-11.5468
▁corps	-11.5468
▁societ	-11.547
essa	-11.5472
tina	-11.5474
▁Hip	-11.5481
▁Kings	-11.5484
▁Orso	-11.5487
▁Jerr	-11.5488
▁ca	-11.5489
▁Aldea	-11.549
▁Heav	-11.5492
▁Gul	-11.5495
947	-11.55
▁matern	-11.5501
▁Adria	-11.5514
▁mixing	-11.5514
▁AP	-11.5519
▁Belle	-11.5521
▁utiliz	-11.5522
▁Mora	-11.5527
▁expose	-11.5532
▁negotiate	-11.5533
▁ow	-11.5536
▁Dela	-11.5536
hem	-11.5539
▁boost	-11.5539
ara	-11.5539
▁permit	-11.5542
▁ambitio	-11.5546
▁Glen	-11.5548
▁Boss	-11.5548
▁swing	-11.5549
ick	-11.5552
▁vin	-11.5559
▁Direct	-11.5561
▁relax	-11.5564
▁discusse	-11.5565
▁triumph	-11.5568
▁Confederate	-11.5568
▁Crystal	-11.5568
▁Doofenshmirt	-11.5568
▁Hoysala	-11.5568
▁Immortal	-11.5568
▁Sovereign	-11.5568
▁Visual	-11.5568
▁pseudonym	-11.5568
▁Brunswick	-11.5568
▁Veeru	-11.5568
▁Volunteer	-11.5568
▁prolific	-11.5568
▁prosper	-11.5568
▁Volume	-11.5568
▁ultra	-11.5568
▁Pegg	-11.5568
▁Viking	-11.5568
▁stuff	-11.5568
▁quake	-11.5568
▁reassign	-11.5568
▁vague	-11.5569
▁Trouble	-11.5569
▁scout	-11.5569
▁Source	-11.5569
▁Wilfri	-11.5569
▁Describ	-11.557
▁Colonna	-11.557
▁allegation	-11.557
▁facade	-11.557
▁Tucker	-11.557
▁Nash	-11.5571
▁endanger	-11.5571
▁roost	-11.5571
▁evacuation	-11.5572
▁typhoon	-11.5572
▁renovation	-11.5572
▁harmon	-11.5572
▁bitter	-11.5572
▁steer	-11.5572
▁attendant	-11.5574
▁Wonder	-11.5574
▁frontier	-11.5574
▁fortifi	-11.5575
▁teenager	-11.5575
▁Lowland	-11.5575
▁ylide	-11.5576
▁Hamar	-11.5576
▁comedian	-11.5576
▁gull	-11.5577
▁Chauv	-11.5579
▁Sieg	-11.5579
▁750	-11.558
▁monaster	-11.5581
▁thickness	-11.5581
▁installation	-11.5581
▁blast	-11.5581
▁Eno	-11.5582
▁sympathetic	-11.5582
▁accomplishment	-11.5582
▁layout	-11.5583
▁Cultur	-11.5583
▁Moment	-11.5583
▁Rico	-11.5583
▁Arama	-11.5584
▁colonist	-11.5585
▁Laboratory	-11.5586
▁maneuver	-11.5587
▁distinction	-11.5588
▁township	-11.559
▁drought	-11.5591
▁worse	-11.5591
▁fever	-11.5602
▁persona	-11.5604
▁prose	-11.5606
OM	-11.5606
▁Elliot	-11.5607
▁Nam	-11.5611
▁Denis	-11.5616
ogue	-11.5621
MI	-11.5622
▁provok	-11.5622
▁virus	-11.5622
▁Ros	-11.5622
▁resembl	-11.5627
▁Fann	-11.5627
AR	-11.5628
▁Kubic	-11.563
▁hail	-11.5631
▁Royst	-11.5637
liot	-11.5643
atus	-11.5644
▁elde	-11.5649
DT	-11.5652
▁181	-11.5657
▁Complete	-11.5659
▁ports	-11.5663
▁Stans	-11.5666
▁ecolog	-11.5672
▁Fr	-11.5677
▁mast	-11.5682
▁Tell	-11.569
▁Harbo	-11.5691
hua	-11.5692
▁integr	-11.5695
▁nurser	-11.571
▁Store	-11.571
▁bottle	-11.5714
imol	-11.5715
▁Past	-11.5717
▁rivalr	-11.5718
▁Hay	-11.5718
53	-11.5719
▁mu	-11.5722
▁demo	-11.5723
▁commenc	-11.5723
▁Juda	-11.5729
▁archer	-11.5729
▁periodical	-11.5736
nuclea	-11.5737
critic	-11.5741
▁Scots	-11.5742
▁gam	-11.5742
▁Ghat	-11.5743
▁Hunter	-11.5755
▁grace	-11.5764
phore	-11.5765
▁Bolt	-11.5775
▁refugee	-11.5777
erb	-11.5781
RIA	-11.5784
▁Mack	-11.5785
▁summi	-11.5787
▁doors	-11.579
▁Sim	-11.579
▁Southeast	-11.5794
▁chancel	-11.5803
▁Strong	-11.5807
IAA	-11.581
laine	-11.5817
▁Stay	-11.5827
▁Gerr	-11.5827
▁dome	-11.583
▁enact	-11.5838
▁photography	-11.5845
ata	-11.5847
▁Nova	-11.5849
nyi	-11.5849
▁arrow	-11.585
rt	-11.5853
▁Knights	-11.5854
▁Chang	-11.5857
moto	-11.5858
TA	-11.586
ometric	-11.5864
▁Beyon	-11.5872
▁Astra	-11.5877
▁Blo	-11.588
▁crystal	-11.588
ii	-11.5882
pover	-11.5883
sund	-11.5892
▁Berm	-11.5893
▁Domo	-11.5898
▁Schu	-11.5901
▁Fernand	-11.5901
▁mann	-11.5903
▁compil	-11.5906
▁commemorate	-11.5911
29	-11.5913
▁oral	-11.5915
▁Broadcast	-11.5916
▁Corn	-11.5928
▁rocks	-11.5928
▁beta	-11.5931
▁swimm	-11.5934
▁rely	-11.5939
▁proceeding	-11.5943
▁Ul	-11.595
▁phosphor	-11.5956
▁fears	-11.5956
▁commentar	-11.5957
▁reconstruct	-11.5963
rigadier	-11.5966
▁detach	-11.5966
▁cheap	-11.5967
▁Laud	-11.5967
▁Susquehann	-11.5968
▁Spirit	-11.5968
▁obsole	-11.5968
▁Gandhi	-11.5968
▁Odysse	-11.5968
▁chemotherap	-11.5968
▁constituenc	-11.5968
▁hymn	-11.5968
▁insurgent	-11.5968
▁ironclad	-11.5968
▁satisfy	-11.5968
▁rumour	-11.5968
▁ecosystem	-11.5968
▁theologian	-11.5968
▁Investigation	-11.5968
▁parodie	-11.5968
▁sporadic	-11.5968
▁resort	-11.5968
▁dissent	-11.5968
▁acquisition	-11.5968
▁Jacque	-11.5968
▁Commercial	-11.5969
▁hairstyle	-11.5969
▁concurrent	-11.5969
▁Fiction	-11.5969
▁steamboat	-11.5969
▁LED	-11.5969
anagi	-11.5969
▁consultant	-11.5969
▁Pierre	-11.5969
▁massacre	-11.5969
▁Drama	-11.5969
▁fission	-11.5969
▁embryo	-11.5969
▁Newark	-11.5969
▁Galile	-11.597
▁nasal	-11.597
▁Ta	-11.597
▁stiff	-11.597
▁warrant	-11.597
▁Fletcher	-11.597
▁grammar	-11.597
▁Savanna	-11.597
▁mound	-11.597
eaten	-11.597
▁Hereford	-11.5971
▁honest	-11.5971
▁excessive	-11.5971
▁Homar	-11.5971
▁amphibi	-11.5972
▁random	-11.5972
leasure	-11.5972
▁modification	-11.5973
▁certification	-11.5973
▁Drive	-11.5973
▁Transit	-11.5973
▁unemploy	-11.5974
▁pocket	-11.5974
▁width	-11.5974
▁Sugar	-11.5974
▁Blake	-11.5975
▁stallion	-11.5975
▁unlock	-11.5975
▁Arena	-11.5976
▁pretend	-11.5976
▁Sometime	-11.5976
▁sprint	-11.5976
▁Abram	-11.5977
inner	-11.5978
▁Airlines	-11.5979
▁Cove	-11.5979
▁barge	-11.5981
▁Muhammad	-11.5982
llor	-11.5985
▁Publication	-11.5985
▁assured	-11.5987
▁260	-11.5987
▁Discover	-11.5989
▁Beside	-11.5996
▁Buck	-11.5997
▁Erik	-11.5998
▁prayer	-11.5999
▁lung	-11.6
▁RAR	-11.6004
▁rice	-11.6004
▁indoor	-11.6005
▁Bra	-11.6007
▁funnel	-11.6009
▁conception	-11.6011
▁Cather	-11.6018
▁consumer	-11.6018
▁disabl	-11.6024
mund	-11.6029
▁pm	-11.6035
uarte	-11.6038
▁Fant	-11.6038
▁Tham	-11.6039
▁swell	-11.604
▁chairm	-11.6041
▁Kerr	-11.6045
castle	-11.6048
▁echo	-11.6049
▁Tak	-11.605
rn	-11.6052
▁Gu	-11.6052
▁Hungar	-11.6056
▁pun	-11.6057
▁Winds	-11.6058
▁Zealander	-11.6063
Shara	-11.6065
▁McG	-11.6069
▁Traf	-11.6072
▁Tau	-11.6073
manda	-11.6073
▁traveler	-11.6074
▁lord	-11.6074
urrender	-11.6075
▁135	-11.6076
▁branche	-11.6082
▁Ger	-11.6087
anyan	-11.6089
▁leaf	-11.6089
75	-11.609
ott	-11.609
▁continent	-11.6093
▁Kras	-11.6095
éra	-11.6095
▁Lars	-11.6096
▁terminal	-11.6102
▁regulate	-11.6105
▁treasure	-11.6109
▁axi	-11.6112
dining	-11.6115
croft	-11.6116
▁Mott	-11.6122
▁Sema	-11.6128
▁sto	-11.6128
▁Goa	-11.6128
▁dan	-11.6128
▁poisoning	-11.613
▁Holland	-11.6132
lov	-11.6134
yat	-11.6136
bonell	-11.6138
▁migrat	-11.6138
▁nationalist	-11.6139
▁plat	-11.6141
▁tim	-11.6147
▁Core	-11.6147
▁loyal	-11.6151
oxide	-11.6154
hip	-11.6156
▁Put	-11.6157
▁villager	-11.6157
▁Steven	-11.6159
▁Indo	-11.616
▁refuge	-11.6166
▁Hui	-11.6171
pological	-11.6171
mack	-11.6172
▁poster	-11.6176
isle	-11.6184
▁Nat	-11.6189
▁Jeffr	-11.6197
▁Eye	-11.6198
▁Lac	-11.62
force	-11.6208
▁intermedia	-11.6209
ignment	-11.621
▁111	-11.6212
▁modes	-11.622
▁sew	-11.6222
▁appreciat	-11.6229
▁grid	-11.623
▁Get	-11.6234
flow	-11.6237
ore	-11.6239
▁var	-11.6249
▁breath	-11.6252
▁Proto	-11.6254
▁replay	-11.626
▁Cran	-11.6262
roll	-11.6264
▁explode	-11.627
▁footballer	-11.6272
▁115	-11.6272
▁Any	-11.6276
▁cons	-11.6277
▁Ear	-11.628
▁suite	-11.6284
▁Bute	-11.6287
▁contemporar	-11.6287
▁Wor	-11.6289
▁plent	-11.629
▁Twic	-11.6302
▁162	-11.6307
▁Brave	-11.6307
13	-11.6309
ambu	-11.6314
▁deteriorat	-11.6315
▁carriages	-11.6325
▁Non	-11.6326
dian	-11.6329
etace	-11.6331
▁im	-11.6335
▁widen	-11.6341
▁compartment	-11.6342
eri	-11.6344
▁capp	-11.6344
▁consolidat	-11.6346
▁Jaganna	-11.6349
▁Magad	-11.6355
▁Conni	-11.6358
▁Authorit	-11.6358
▁invade	-11.6365
maker	-11.6366
▁Yugoslav	-11.6368
▁manag	-11.6371
▁zoo	-11.6379
posed	-11.638
iscus	-11.6382
▁Susan	-11.6382
▁Ranger	-11.6382
jing	-11.6383
clamation	-11.6384
abyrinth	-11.6385
▁chip	-11.6385
▁Ambassador	-11.6385
▁Constantinople	-11.6385
▁Dinosaur	-11.6385
▁Elephant	-11.6385
▁Geograph	-11.6385
▁Pitcairn	-11.6385
▁epithet	-11.6385
▁violacea	-11.6385
▁Viscount	-11.6385
▁javelin	-11.6385
▁Municipal	-11.6385
▁gauge	-11.6385
▁pianist	-11.6385
▁Huguenot	-11.6385
▁Palmyra	-11.6385
▁climax	-11.6385
▁rearguard	-11.6385
▁Junior	-11.6385
▁copper	-11.6385
▁Chairman	-11.6385
▁affirm	-11.6385
▁Abraham	-11.6385
▁reproduction	-11.6385
▁bug	-11.6386
▁songwriting	-11.6386
▁spider	-11.6386
reth	-11.6386
▁distress	-11.6386
▁thorough	-11.6386
▁referee	-11.6386
▁fascinat	-11.6386
▁haunt	-11.6386
▁GameSp	-11.6386
▁infant	-11.6387
▁displacement	-11.6387
▁keen	-11.6388
▁hyper	-11.6388
▁incorrect	-11.6389
▁hypha	-11.6389
▁partition	-11.6389
▁intent	-11.639
▁Yeoman	-11.639
▁sortie	-11.6391
▁enterprise	-11.6391
▁rework	-11.6391
▁barrow	-11.6391
gow	-11.6391
▁downgrad	-11.6391
▁Plen	-11.6392
▁innocent	-11.6392
▁investor	-11.6393
▁disagreement	-11.6393
▁detective	-11.6393
▁Harve	-11.6393
▁Rule	-11.6394
▁Loft	-11.6395
▁DJ	-11.6395
22	-11.6396
▁Side	-11.6396
▁deadline	-11.6396
aig	-11.6396
▁Iberia	-11.6397
▁brass	-11.6397
▁betray	-11.6398
▁organism	-11.6399
▁operative	-11.6399
▁micro	-11.64
▁consequent	-11.64
▁mason	-11.6401
toge	-11.6401
▁jacket	-11.6401
▁farmland	-11.6401
▁oriented	-11.6402
▁reside	-11.6402
▁Campus	-11.6402
▁manipulat	-11.6403
▁grape	-11.6405
▁Kur	-11.6407
▁Huai	-11.6408
iaduct	-11.6408
▁Rear	-11.6411
▁Card	-11.6412
▁Metallic	-11.6414
▁decree	-11.6418
▁Protect	-11.6419
▁negotiat	-11.642
▁bibl	-11.6421
▁clinical	-11.6422
ennial	-11.6423
▁Match	-11.6426
bi	-11.6426
▁pecki	-11.6428
▁owl	-11.6429
▁Clan	-11.6431
▁assessment	-11.6435
▁anticipat	-11.6439
▁gear	-11.644
▁Mau	-11.644
▁Olivi	-11.6446
▁oak	-11.6447
▁cite	-11.6454
▁rounded	-11.6455
▁Grey	-11.6456
eki	-11.6457
▁Zo	-11.6458
▁li	-11.6465
▁Sign	-11.6465
▁rod	-11.6466
▁Plato	-11.6469
▁trailer	-11.6471
aland	-11.6474
▁container	-11.6474
▁Solid	-11.6475
sank	-11.6484
▁cliff	-11.6485
▁vi	-11.65
east	-11.6505
▁kun	-11.6507
vann	-11.6512
▁ext	-11.6514
▁influenc	-11.6516
▁groove	-11.6521
ongo	-11.6526
▁Aden	-11.6531
▁discharge	-11.6533
sburg	-11.6541
▁gag	-11.6543
▁sighting	-11.6543
▁Pink	-11.6547
▁Dove	-11.655
▁Strange	-11.6551
▁caps	-11.6555
right	-11.6556
▁Hib	-11.6562
▁Kan	-11.6568
fu	-11.6571
▁Fus	-11.6575
▁Therefor	-11.6577
▁chas	-11.6578
ae	-11.6578
▁hanging	-11.658
icken	-11.658
▁Wein	-11.6583
▁Era	-11.6587
Eu	-11.6599
▁torn	-11.6608
marca	-11.6608
▁Lenn	-11.6608
97	-11.6621
oceratops	-11.6624
▁breach	-11.6629
▁Whole	-11.6637
▁meal	-11.6638
▁myelo	-11.6645
▁Patter	-11.6649
▁entit	-11.6653
▁Strat	-11.6659
▁hatch	-11.6665
▁Rac	-11.6667
▁Bree	-11.6677
▁laugh	-11.6679
▁antholog	-11.6679
▁Pict	-11.6683
▁Munic	-11.6685
▁mail	-11.6692
▁Jenni	-11.6694
▁Harmoni	-11.6698
▁fed	-11.6698
ps	-11.6704
▁127	-11.6706
▁Watch	-11.6715
unch	-11.6716
rphy	-11.6719
▁und	-11.6725
▁Tag	-11.6727
▁Mall	-11.6729
een	-11.6734
▁kit	-11.6742
▁narrat	-11.6742
PR	-11.6751
▁trauma	-11.6754
▁Fig	-11.6764
▁reserves	-11.677
▁sur	-11.6771
▁Dry	-11.6775
▁Herman	-11.6776
pur	-11.6791
▁destin	-11.6794
andra	-11.6794
▁Bulgaria	-11.6801
▁Rhodesia	-11.6802
▁Massa	-11.6802
▁Angle	-11.6805
▁Electric	-11.6806
▁Combin	-11.6812
▁retaliat	-11.6814
▁Locat	-11.6814
▁Select	-11.6816
▁Range	-11.6816
▁Believ	-11.6817
▁faste	-11.6818
▁Bert	-11.6819
▁Individual	-11.682
▁McLuhan	-11.682
▁Senior	-11.682
▁cytoplasm	-11.682
▁inferior	-11.682
▁jurisdiction	-11.682
▁scream	-11.682
▁sovereign	-11.682
▁substrate	-11.682
▁unanimous	-11.682
▁vassal	-11.682
▁Animal	-11.682
▁mosque	-11.682
▁Affair	-11.682
▁agaric	-11.682
▁licence	-11.682
▁spoil	-11.682
▁Assistant	-11.682
▁surprising	-11.682
▁Mobile	-11.682
▁unveil	-11.682
▁Wednes	-11.682
▁lobster	-11.682
▁undergraduate	-11.682
▁Tamil	-11.682
▁odor	-11.682
▁demolition	-11.682
▁identification	-11.682
▁accommodation	-11.682
▁chef	-11.682
▁galax	-11.682
▁Idol	-11.682
▁psychological	-11.682
▁flashback	-11.682
▁eager	-11.682
▁Reaction	-11.682
▁Townsville	-11.6821
▁Siberia	-11.6821
▁legitimate	-11.6821
▁proud	-11.6821
▁pirate	-11.6821
▁Antille	-11.6821
▁keyboard	-11.6821
▁comparative	-11.6821
▁remaster	-11.6821
▁redevelop	-11.6821
▁Tribun	-11.6822
▁faint	-11.6822
▁Triple	-11.6822
▁medley	-11.6822
▁spectator	-11.6822
▁humorous	-11.6822
▁sponsorship	-11.6823
▁sparse	-11.6823
▁Kashi	-11.6824
▁arcade	-11.6825
▁delicate	-11.6826
▁luck	-11.6826
▁Chester	-11.6826
▁Claw	-11.6828
▁naturalist	-11.6828
▁Bullet	-11.6829
▁transformation	-11.6829
▁ideolog	-11.6829
▁Voyager	-11.683
▁Midland	-11.6831
▁Parade	-11.6832
▁Personnel	-11.6832
▁escap	-11.6836
▁robe	-11.6836
▁satisfie	-11.6837
▁lament	-11.6837
▁174	-11.6837
ask	-11.6838
▁Johann	-11.684
▁wonder	-11.684
▁stamp	-11.6841
▁symmetrical	-11.6845
▁Planet	-11.6846
▁oppose	-11.6848
ging	-11.6848
▁mold	-11.6853
▁Borea	-11.6854
▁donor	-11.6854
▁teache	-11.6855
▁AOC	-11.6857
nunciation	-11.6858
▁assignment	-11.6859
▁Why	-11.6863
▁tongue	-11.6863
▁Diane	-11.6863
▁Patriarch	-11.6864
▁auto	-11.6865
▁pressing	-11.6865
▁comfort	-11.6872
▁Devon	-11.6872
▁Plum	-11.6872
▁Chess	-11.6873
▁mint	-11.6874
▁243	-11.6875
▁Ward	-11.6879
▁imagine	-11.6879
nder	-11.688
▁diminish	-11.6883
▁Highlander	-11.6883
▁Verme	-11.6889
▁Amun	-11.689
▁slaver	-11.6891
inea	-11.6892
▁plateau	-11.6896
▁fatalit	-11.6896
▁graves	-11.6897
▁Iran	-11.69
▁Bould	-11.6909
▁Med	-11.6912
kawa	-11.6912
▁utter	-11.6913
▁Boo	-11.6915
oni	-11.6916
▁academ	-11.6916
▁Spy	-11.6916
▁Burt	-11.6928
▁farms	-11.6932
IT	-11.6933
▁quest	-11.6933
▁Lev	-11.6933
▁consume	-11.6937
▁fertil	-11.6938
rey	-11.6942
▁Jill	-11.6948
ras	-11.6949
▁Herbi	-11.695
▁Tur	-11.6952
▁placement	-11.6952
uff	-11.6953
▁prosecuti	-11.6953
▁Fine	-11.6964
cFarlan	-11.6966
umn	-11.6972
▁Mode	-11.6973
▁affiliate	-11.6975
iers	-11.6978
▁Toward	-11.6979
ig	-11.698
▁exceeding	-11.698
scher	-11.6981
▁seasonal	-11.6981
▁bark	-11.6982
▁Rud	-11.6991
▁JT	-11.6991
▁Hardy	-11.6992
tter	-11.6994
▁Gene	-11.6994
ahl	-11.6996
▁prop	-11.6999
▁Ab	-11.7
▁hypothesis	-11.7001
▁Micro	-11.7013
▁waterway	-11.7015
structure	-11.7023
atomic	-11.7024
▁Fulb	-11.7034
▁Lao	-11.7035
vana	-11.7036
ential	-11.7038
Down	-11.7045
market	-11.7046
strong	-11.7051
▁Pipe	-11.7061
▁Malaya	-11.7062
woman	-11.7073
▁migrate	-11.7079
▁forth	-11.7083
ayana	-11.7083
hk	-11.7089
▁Poe	-11.709
ating	-11.7094
▁mixe	-11.7095
▁analyse	-11.7103
▁Linds	-11.7104
witt	-11.7104
ut	-11.7106
▁gambl	-11.7106
awa	-11.7114
▁Jak	-11.712
greement	-11.7123
▁Puppet	-11.7126
oven	-11.7126
▁Aval	-11.713
▁137	-11.7131
nown	-11.7139
▁reliev	-11.7145
▁Bron	-11.7145
ual	-11.7148
88	-11.7149
▁plac	-11.7151
▁correspond	-11.7153
dick	-11.7155
ric	-11.7157
▁Merced	-11.716
▁Safe	-11.7163
▁Kid	-11.7164
WC	-11.7165
▁Nanc	-11.7166
▁ban	-11.7167
▁pledge	-11.7168
▁Roch	-11.7176
rmal	-11.7178
▁hell	-11.7179
▁Cris	-11.7179
color	-11.7184
gge	-11.7189
▁dresse	-11.7191
▁expir	-11.7191
▁Tempe	-11.7194
▁McMa	-11.7202
fa	-11.7203
▁torture	-11.7208
▁originate	-11.7208
▁Kahn	-11.7215
▁excited	-11.7238
▁Break	-11.7244
ussels	-11.7246
▁Eugen	-11.725
▁necessit	-11.7255
▁Rum	-11.7257
▁etc	-11.7265
▁televis	-11.7269
▁feat	-11.7269
▁Period	-11.7269
▁prince	-11.727
▁metaphor	-11.7273
▁Doc	-11.7274
▁enroll	-11.7274
▁Agricultur	-11.7274
▁Benedict	-11.7274
▁Environment	-11.7274
▁Portrait	-11.7274
▁immense	-11.7274
▁prehistor	-11.7274
▁reincarnation	-11.7274
▁resurrect	-11.7274
▁revolt	-11.7274
▁submerge	-11.7274
▁client	-11.7274
▁postpone	-11.7274
▁Snake	-11.7274
▁absent	-11.7274
▁Continent	-11.7274
▁Tunnel	-11.7274
▁Prussia	-11.7274
▁liberal	-11.7274
▁Barbour	-11.7274
▁Proctor	-11.7274
▁butterfl	-11.7274
▁WWE	-11.7274
▁Flood	-11.7274
jiang	-11.7274
▁Survivor	-11.7275
▁Strait	-11.7275
▁grasp	-11.7275
▁superficial	-11.7275
▁patent	-11.7275
▁unpopular	-11.7275
▁Doroth	-11.7275
▁triangle	-11.7275
▁persistent	-11.7275
▁treason	-11.7275
▁XeF	-11.7275
▁courage	-11.7275
▁loot	-11.7275
▁Vaishnav	-11.7276
▁analog	-11.7276
▁outdoor	-11.7276
▁atmospheric	-11.7276
▁niche	-11.7277
▁wheat	-11.7277
▁Karamok	-11.7277
▁Def	-11.7277
tland	-11.7278
▁bunker	-11.7278
▁Clean	-11.7279
▁Gaga	-11.7279
▁Allāh	-11.7279
▁compell	-11.7279
▁pagan	-11.7279
▁Petit	-11.7279
▁Ragh	-11.728
▁cement	-11.728
▁dorsal	-11.728
▁niece	-11.728
hand	-11.7281
ico	-11.7281
▁Hydn	-11.7281
occer	-11.7282
▁pray	-11.7282
▁thriller	-11.7283
▁calculation	-11.7283
▁Money	-11.7283
▁primitiv	-11.7284
▁flatten	-11.7285
▁Rowland	-11.7285
▁enthusiastic	-11.7286
▁file	-11.7286
▁discontinu	-11.7288
▁flightless	-11.7289
▁determination	-11.7289
▁novelist	-11.729
▁forag	-11.7291
▁input	-11.7291
▁1820	-11.7292
offman	-11.7293
extraterrestrial	-11.7293
▁Luck	-11.7294
▁prediction	-11.7294
▁Picture	-11.7295
▁dictator	-11.7297
lie	-11.7298
▁supervisor	-11.7298
▁Thanh	-11.7298
▁tow	-11.7299
▁Norse	-11.7299
▁Moravia	-11.7299
▁nude	-11.7301
▁propell	-11.7306
▁370	-11.7307
sance	-11.731
▁irrigat	-11.7315
▁mobil	-11.7318
▁Hadd	-11.7319
▁imagin	-11.732
▁Ltd	-11.7321
▁Indiana	-11.7321
▁Comet	-11.7324
▁Sebasti	-11.7325
▁Bryan	-11.7326
▁temperat	-11.7326
▁rector	-11.7327
▁Thorn	-11.7336
▁Peace	-11.7336
▁Writer	-11.7337
▁user	-11.734
▁tribe	-11.7341
▁Mason	-11.7351
▁oval	-11.7353
▁ceremoni	-11.7353
▁Standing	-11.7354
▁Vocal	-11.7356
▁invisibl	-11.736
oid	-11.7361
▁ironic	-11.7364
▁precipitati	-11.7366
lane	-11.7367
▁theoretical	-11.7373
▁Fashi	-11.7374
▁labell	-11.7381
uez	-11.7384
▁Commissioner	-11.7386
herzo	-11.7387
▁Bern	-11.7389
▁posts	-11.7391
surance	-11.7392
▁Lauren	-11.7394
▁temper	-11.7395
reby	-11.7395
▁popula	-11.7396
ven	-11.7408
▁Kel	-11.7408
llah	-11.741
ino	-11.7416
▁bag	-11.7419
▁Tal	-11.7422
▁Econom	-11.7424
62	-11.7424
▁Loch	-11.7426
▁commando	-11.743
▁Hil	-11.7432
▁Sabo	-11.7439
▁Mond	-11.7444
▁emphasiz	-11.7458
other	-11.7459
▁Oste	-11.7461
asco	-11.7464
▁Mycena	-11.7471
▁constitutional	-11.7472
▁ga	-11.7472
▁shorten	-11.7479
▁Cabr	-11.7479
▁bead	-11.7482
▁undert	-11.7482
85	-11.7482
▁Kre	-11.7482
front	-11.7482
sistance	-11.7488
▁fragili	-11.7493
▁Din	-11.7496
▁punish	-11.7499
▁modell	-11.7503
the	-11.7504
Octa	-11.7509
entine	-11.7514
Music	-11.7523
▁div	-11.7526
grass	-11.7529
▁Ras	-11.7532
▁synth	-11.7537
WA	-11.7545
▁Charit	-11.7547
▁Ono	-11.7549
▁RAF	-11.7556
▁pope	-11.7558
▁Barre	-11.7561
▁Raw	-11.7564
lash	-11.7566
parts	-11.7568
horn	-11.7572
elet	-11.7572
▁Palen	-11.7573
enic	-11.7588
▁Gia	-11.7593
▁accessib	-11.7598
moor	-11.76
▁u	-11.76
rit	-11.7603
bove	-11.7604
hapur	-11.7606
▁Laur	-11.7609
IA	-11.761
▁Luk	-11.761
nan	-11.7613
▁abnormal	-11.7617
▁Vin	-11.7625
▁Wey	-11.7629
▁spite	-11.7629
▁stretche	-11.7631
och	-11.7636
▁Steam	-11.7636
▁Gan	-11.7641
▁Tan	-11.7642
▁Glad	-11.7642
ran	-11.7643
▁Gris	-11.7643
▁boot	-11.7648
▁screening	-11.7648
▁killer	-11.7651
chary	-11.7653
▁Barr	-11.7653
▁Lowe	-11.7654
▁sensation	-11.7659
▁Hal	-11.766
prising	-11.7668
▁privilege	-11.7671
ult	-11.7671
▁Christophe	-11.7675
▁Member	-11.7676
▁Hild	-11.7686
nik	-11.7695
▁fer	-11.77
cha	-11.7701
▁worshipp	-11.7704
litz	-11.7707
▁Leg	-11.7715
▁Novel	-11.7716
▁cosm	-11.772
▁Nature	-11.7721
▁resolv	-11.7722
▁golf	-11.7724
▁municipalit	-11.7726
▁recreation	-11.773
▁prominen	-11.773
▁iT	-11.7732
▁hi	-11.774
▁Timo	-11.7741
▁distract	-11.7743
▁Arabia	-11.7743
▁moons	-11.7744
▁Fight	-11.7745
dolph	-11.7746
yphoon	-11.7747
▁traverse	-11.7749
▁twel	-11.7749
▁Gam	-11.7749
▁Ukrain	-11.7749
▁Cossack	-11.775
▁etymolog	-11.775
▁insufficient	-11.775
▁Appeal	-11.775
▁Certain	-11.775
▁Hubbard	-11.775
▁Klingon	-11.775
▁democra	-11.775
▁supernova	-11.775
▁vigorous	-11.775
▁caravan	-11.775
▁gravitational	-11.775
▁choral	-11.775
▁envision	-11.7751
▁beneficia	-11.7751
▁vicar	-11.7751
▁larva	-11.7751
▁Buckingham	-11.7751
▁Sleep	-11.7751
▁Nottingham	-11.7751
▁PSP	-11.7751
▁Hamlet	-11.7751
▁eucalypt	-11.7751
▁Dangerous	-11.7751
▁Standard	-11.7751
▁incumbent	-11.7751
▁Sector	-11.7751
▁Exit	-11.7751
▁migrant	-11.7751
▁wonderful	-11.7751
▁Kaiser	-11.7751
▁timeslot	-11.7751
▁plaster	-11.7751
▁textile	-11.7751
▁compact	-11.7751
▁outpost	-11.7752
▁Armour	-11.7752
▁fret	-11.7752
▁olive	-11.7752
▁Testament	-11.7752
▁Stead	-11.7752
▁Quarter	-11.7752
▁Torch	-11.7752
▁smart	-11.7753
▁obligation	-11.7753
▁tech	-11.7753
▁Pilot	-11.7753
▁Peronist	-11.7753
▁distortion	-11.7754
▁Manual	-11.7754
▁artefact	-11.7755
▁frustration	-11.7755
▁fond	-11.7755
▁sociolog	-11.7755
▁dinner	-11.7755
▁tyre	-11.7755
▁philosophical	-11.7756
▁calculator	-11.7757
▁missionar	-11.7757
▁laser	-11.7757
▁purpl	-11.7757
▁hazard	-11.7757
▁Evil	-11.7757
▁occurrence	-11.7757
▁rebound	-11.7757
▁preservation	-11.7758
▁Hyder	-11.7758
▁Collin	-11.7758
▁extract	-11.7759
▁pigment	-11.7759
▁faithful	-11.7759
▁inspect	-11.776
▁Cabo	-11.776
▁Disappear	-11.7761
▁Indoor	-11.7761
ano	-11.7762
hattan	-11.7762
▁Benson	-11.7763
eur	-11.7763
akapo	-11.7764
▁280	-11.7764
▁innovation	-11.7764
lain	-11.7765
▁Dub	-11.7765
▁Oswald	-11.7765
▁smok	-11.7766
▁penis	-11.7766
▁Hank	-11.7767
▁hinder	-11.7767
▁Xin	-11.7769
▁satiric	-11.7769
▁Bosnian	-11.7769
▁Baja	-11.777
▁Valu	-11.777
▁insight	-11.777
▁Traditional	-11.7772
▁protector	-11.7772
▁Ern	-11.7773
▁overnight	-11.7773
▁procedure	-11.7776
▁Fighter	-11.7779
▁percussion	-11.778
▁Beer	-11.7784
▁wield	-11.7785
list	-11.7785
▁sentimental	-11.7785
▁indication	-11.7788
ad	-11.779
▁bleed	-11.7793
andis	-11.7794
▁marine	-11.7796
rín	-11.7796
▁cultivat	-11.7799
▁Vi	-11.78
▁plastic	-11.7802
▁275	-11.7803
evel	-11.7803
urnpike	-11.7803
▁Qin	-11.7806
▁Gambia	-11.7809
▁Reading	-11.7812
▁116	-11.7816
▁retro	-11.7818
▁Gra	-11.7826
mi	-11.7827
udor	-11.7831
▁joy	-11.7832
nick	-11.7833
▁blown	-11.7836
▁Geast	-11.7837
▁progresses	-11.7839
yādvāda	-11.784
▁Edinb	-11.784
▁ser	-11.7845
▁320	-11.7847
▁patroll	-11.7849
▁Wars	-11.7853
anga	-11.7854
▁induc	-11.7854
state	-11.7858
▁nonsens	-11.7861
▁Mongolia	-11.7866
▁Cassin	-11.787
illo	-11.7871
aki	-11.7873
▁Dev	-11.7876
▁Notabl	-11.7877
cover	-11.7878
ison	-11.7879
ud	-11.7881
ase	-11.7882
▁Cai	-11.7889
▁Pin	-11.7899
eau	-11.7906
ition	-11.7907
▁Osa	-11.7913
▁Pitt	-11.7914
▁bacteria	-11.7915
▁captive	-11.7917
▁aft	-11.792
▁consort	-11.792
▁aut	-11.792
▁revive	-11.7922
32	-11.7928
ouche	-11.7937
▁Roos	-11.7942
▁FC	-11.7953
▁initiate	-11.7956
▁Bear	-11.7962
▁Diam	-11.7962
zi	-11.7965
ricon	-11.7969
▁Div	-11.7969
▁Brent	-11.797
set	-11.7974
▁McCa	-11.7975
iest	-11.7977
harp	-11.7978
▁fisher	-11.7981
szt	-11.7986
▁clash	-11.799
piece	-11.7992
▁161	-11.7992
cus	-11.7994
▁CA	-11.7995
▁organizer	-11.8
point	-11.8008
view	-11.8015
▁Sep	-11.8016
realm	-11.8018
Arthur	-11.8021
nati	-11.8026
▁Rush	-11.8053
rous	-11.8056
aya	-11.8058
care	-11.8058
▁realm	-11.8063
pan	-11.8065
val	-11.8068
▁unus	-11.8074
▁Toro	-11.8076
▁Days	-11.8077
▁Figg	-11.8078
▁Berli	-11.8078
PL	-11.8088
▁Sp	-11.8091
zor	-11.8098
EO	-11.8104
eating	-11.8105
▁Pompe	-11.8109
fric	-11.811
acy	-11.811
▁heli	-11.8112
▁sp	-11.8119
▁dissolve	-11.8122
▁polici	-11.813
▁evacuat	-11.8131
CN	-11.8141
▁GB	-11.8149
vara	-11.8152
▁classifie	-11.8156
▁480	-11.8157
▁Sk	-11.8162
▁lease	-11.8166
▁gale	-11.8171
▁Baye	-11.8173
orough	-11.8174
city	-11.8174
▁musc	-11.8181
▁Tamp	-11.8181
apoli	-11.8184
pus	-11.8185
▁denie	-11.8185
enus	-11.8186
▁forget	-11.8187
▁pan	-11.8195
▁relian	-11.8196
onso	-11.8199
▁accumulate	-11.8203
▁ram	-11.8205
▁pav	-11.8206
▁violat	-11.8215
▁Fac	-11.8216
haps	-11.8218
▁devot	-11.8218
itsu	-11.8218
▁accelerat	-11.8221
▁geograph	-11.8223
▁assassin	-11.8225
▁submit	-11.8225
▁Claire	-11.8226
▁Region	-11.8228
▁Cit	-11.8235
▁ancestr	-11.8237
▁FO	-11.8238
▁Turn	-11.8238
▁analyz	-11.824
▁Crusade	-11.8241
promising	-11.8244
▁pronounce	-11.8246
▁vertebra	-11.8248
▁Communication	-11.825
▁Salvador	-11.825
▁Tamaulipas	-11.825
▁compatib	-11.825
▁ecclesiastic	-11.825
▁emplacement	-11.825
▁knuckleball	-11.825
▁verdict	-11.825
▁allegiance	-11.825
▁robust	-11.825
▁Auckland	-11.825
▁Century	-11.825
▁augment	-11.825
▁kilogram	-11.825
▁scandal	-11.825
▁Nguy	-11.825
▁imprint	-11.825
▁ESPN	-11.825
▁Swamp	-11.825
▁dreadnought	-11.825
▁nervous	-11.825
▁manoeuvre	-11.825
▁smell	-11.825
▁Templar	-11.825
▁creep	-11.825
▁Orthodox	-11.8251
▁McDougal	-11.8251
▁click	-11.8251
▁HBO	-11.8251
▁Mozambican	-11.8251
▁Picard	-11.8251
▁Window	-11.8251
▁strand	-11.8251
▁notorious	-11.8251
▁Reign	-11.8251
▁Movement	-11.8251
▁reclaim	-11.8251
▁haul	-11.8251
▁receptor	-11.8251
▁Wizard	-11.8251
▁Worth	-11.8251
▁rope	-11.8251
▁Googl	-11.8251
100	-11.8251
agoda	-11.8251
▁Conservative	-11.8251
▁syllable	-11.8251
▁Otto	-11.8251
▁preference	-11.8251
▁vowel	-11.8252
▁mourn	-11.8252
▁physician	-11.8252
▁Observation	-11.8253
▁Phoenician	-11.8253
▁courtyard	-11.8253
▁Frost	-11.8253
▁Duchess	-11.8253
▁befriend	-11.8254
▁Craig	-11.8254
▁dump	-11.8254
▁await	-11.8254
▁motive	-11.8254
▁Lemon	-11.8254
▁stance	-11.8254
▁Napa	-11.8255
▁abstract	-11.8255
▁artifact	-11.8255
▁Warwick	-11.8255
▁institute	-11.8255
▁criteri	-11.8256
ngular	-11.8256
▁Hood	-11.8256
▁Panther	-11.8257
▁daylight	-11.8257
▁authentic	-11.8257
▁invertebrate	-11.8257
▁burden	-11.8257
▁Flash	-11.8258
▁Tin	-11.8258
▁Bosi	-11.8258
▁Krishna	-11.8258
▁omitt	-11.8258
▁Kumar	-11.8258
▁Montagu	-11.8259
▁testimon	-11.826
▁Creation	-11.826
▁Dirt	-11.826
▁Barbie	-11.8261
▁cheese	-11.8262
▁178	-11.8262
▁subsidiar	-11.8263
34	-11.8264
▁prostitute	-11.8265
▁testifie	-11.8265
▁admission	-11.8267
▁communal	-11.8268
▁megalith	-11.8268
▁Aero	-11.8269
▁Finch	-11.8269
▁diversion	-11.8269
▁stripp	-11.8269
▁Amp	-11.827
▁contrar	-11.8271
▁trivial	-11.8271
▁generator	-11.8272
▁Bulgarian	-11.8272
▁Pitch	-11.8274
unt	-11.8275
▁Mood	-11.8276
hor	-11.8277
polis	-11.8279
▁attest	-11.8279
▁Oil	-11.828
▁sewer	-11.8282
▁Take	-11.8285
▁laud	-11.8286
▁podium	-11.8287
▁Political	-11.8288
▁Duncan	-11.8289
omita	-11.8289
strov	-11.8293
uku	-11.8294
▁Zapat	-11.8295
▁Minsk	-11.8296
▁Date	-11.8297
▁clade	-11.83
▁advise	-11.83
▁adoption	-11.8301
ring	-11.8302
▁dismissal	-11.8302
▁addresse	-11.8302
▁Architectur	-11.8306
▁accumulat	-11.8306
▁dispos	-11.8307
▁hitter	-11.8308
▁objection	-11.8318
▁Vision	-11.8318
▁Madre	-11.8319
▁deplet	-11.8319
odon	-11.8321
▁Foot	-11.8323
▁Sali	-11.8324
▁Glitt	-11.8327
pad	-11.8328
▁Mel	-11.8331
▁shooter	-11.8331
▁Lone	-11.8331
▁pathway	-11.8331
▁Hod	-11.8332
vin	-11.8334
urgh	-11.8336
▁carriage	-11.8336
▁forecast	-11.8336
▁Stage	-11.834
▁globe	-11.8345
▁logical	-11.8349
▁southwester	-11.835
AC	-11.835
▁Gle	-11.8351
▁keeper	-11.8354
▁hammer	-11.8355
▁frustrat	-11.8357
bec	-11.8359
▁Influence	-11.8359
ief	-11.836
runk	-11.8362
▁173	-11.8363
▁finishe	-11.8366
▁motivat	-11.8369
▁Too	-11.8371
▁Studi	-11.8373
54	-11.8379
▁proven	-11.8386
bracelet	-11.8388
▁Universe	-11.8388
ique	-11.8389
riff	-11.8395
81	-11.8399
44	-11.84
▁Net	-11.8403
▁SM	-11.8403
DR	-11.8409
▁seller	-11.8412
▁bombard	-11.8416
mani	-11.8417
80	-11.842
▁fictionaliz	-11.8422
▁Julie	-11.8426
▁educat	-11.8427
dding	-11.8433
▁inaugurat	-11.8437
▁logo	-11.844
▁beache	-11.8441
tters	-11.8441
▁appreciate	-11.8442
▁seas	-11.8443
▁Hears	-11.8452
▁guitars	-11.8455
▁rider	-11.8458
▁spare	-11.8466
▁MI	-11.8471
▁reconcile	-11.8472
▁Nir	-11.8477
▁145	-11.8478
▁contend	-11.8479
▁optimis	-11.848
▁attacker	-11.8481
okan	-11.8481
▁Glam	-11.8482
999	-11.8487
▁worri	-11.8488
net	-11.8488
▁Oliv	-11.8489
erra	-11.8494
▁shame	-11.8495
nish	-11.8504
▁Kara	-11.8509
lese	-11.851
▁Cott	-11.8512
▁Futur	-11.8515
▁suck	-11.8518
▁disappointing	-11.8525
▁103	-11.8526
▁fragil	-11.8528
▁IR	-11.8531
87	-11.8531
▁Wii	-11.8535
▁hostilit	-11.8538
powder	-11.8542
lake	-11.8542
▁cartoon	-11.8543
▁Mur	-11.8552
▁HD	-11.8552
▁stripe	-11.8552
▁differentiat	-11.8558
Ellen	-11.8564
▁desir	-11.8566
SC	-11.8571
▁Beat	-11.8574
▁Serge	-11.8574
▁freed	-11.8575
▁wis	-11.8576
thick	-11.8579
▁jumps	-11.858
▁Yea	-11.8581
▁sounding	-11.8582
▁Step	-11.8586
nar	-11.8594
▁Ag	-11.8596
roe	-11.8603
▁Em	-11.8616
▁excavat	-11.8619
▁Paper	-11.862
erff	-11.8621
▁154	-11.8629
▁camel	-11.8636
ila	-11.865
uke	-11.8655
uras	-11.8657
▁Sham	-11.8658
kov	-11.866
▁138	-11.8667
▁evolve	-11.8671
▁Ame	-11.8677
ovi	-11.8687
litude	-11.8694
iego	-11.8703
▁comfortabl	-11.8714
▁lean	-11.8715
▁cart	-11.8715
▁realise	-11.8716
dium	-11.8716
▁detonat	-11.8717
▁provoke	-11.8721
RA	-11.8721
▁corrupt	-11.8722
laza	-11.8724
▁visib	-11.8726
▁compensate	-11.8727
llo	-11.8728
▁hybrid	-11.873
▁outline	-11.873
OS	-11.873
▁Princip	-11.8734
▁Kon	-11.8734
▁650	-11.8741
▁subtle	-11.8743
▁Ivan	-11.8746
▁Cent	-11.8747
▁tracking	-11.8751
▁persuad	-11.8751
aking	-11.8752
▁Pictures	-11.8754
▁Soul	-11.8755
▁Marvel	-11.8759
▁Casa	-11.876
▁ju	-11.8768
▁teenage	-11.8769
▁viewer	-11.8771
ngle	-11.8772
▁robot	-11.8772
▁craz	-11.8773
▁Phoe	-11.8773
▁166	-11.8774
rnissart	-11.8775
▁Experience	-11.8777
▁Hundred	-11.8777
▁Seymour	-11.8777
▁Veerashaiva	-11.8777
▁clutch	-11.8777
▁custod	-11.8777
▁nutrient	-11.8777
▁unnecessar	-11.8777
▁Antarctic	-11.8777
▁Sovetsk	-11.8777
▁librett	-11.8777
▁Rodrigue	-11.8777
▁recipient	-11.8777
▁shadow	-11.8777
▁Amateur	-11.8777
▁Lisbon	-11.8777
▁bohemi	-11.8777
▁disadvantage	-11.8777
▁Orchestra	-11.8777
▁Diarma	-11.8777
▁dismay	-11.8777
▁bankrupt	-11.8777
▁clerk	-11.8777
▁spontaneous	-11.8777
▁Bronze	-11.8777
▁Annual	-11.8777
▁glee	-11.8777
▁Ricci	-11.8777
▁excite	-11.8777
▁Friday	-11.8777
▁autonom	-11.8777
▁pharaoh	-11.8777
▁guess	-11.8777
▁precious	-11.8777
▁Bluff	-11.8777
▁revelation	-11.8777
ów	-11.8777
▁Fleming	-11.8777
▁derivative	-11.8777
▁flotilla	-11.8777
▁tobacco	-11.8777
▁Basket	-11.8777
▁humid	-11.8778
▁Honour	-11.8778
eft	-11.8778
▁hollow	-11.8778
▁Recent	-11.8778
▁earthstar	-11.8778
▁plaque	-11.8778
▁praet	-11.8778
▁Election	-11.8778
▁gait	-11.8778
▁Julia	-11.8778
▁Whig	-11.8778
▁bulkhead	-11.8778
▁clever	-11.8778
▁conform	-11.8778
▁bucket	-11.8779
▁Isabel	-11.8779
▁Certification	-11.8779
▁outnumber	-11.878
▁endorsement	-11.878
▁ballot	-11.878
ridan	-11.8781
▁bestow	-11.8781
▁merit	-11.8781
▁entrench	-11.8781
▁depot	-11.8781
▁reinstate	-11.8782
▁editorial	-11.8782
▁soap	-11.8783
▁morpholog	-11.8783
▁slab	-11.8783
▁pew	-11.8783
brook	-11.8784
▁classroom	-11.8784
▁fantastic	-11.8784
▁Wanna	-11.8784
▁knife	-11.8784
▁Calder	-11.8784
▁Soft	-11.8785
▁clan	-11.8785
▁Speak	-11.8785
▁midfielder	-11.8785
▁Pike	-11.8785
▁Eurasia	-11.8785
▁Gof	-11.8785
▁veil	-11.8786
▁sperm	-11.8787
▁wetland	-11.8788
▁vein	-11.8789
▁papa	-11.8789
▁Hang	-11.879
▁reptile	-11.879
▁Milk	-11.8792
mu	-11.8792
▁forgot	-11.8794
▁logistical	-11.8796
▁Tar	-11.8797
▁Blair	-11.8798
▁Danish	-11.8799
▁elector	-11.8799
▁Marty	-11.88
har	-11.8802
etropolitan	-11.8804
oT	-11.8804
▁Theodore	-11.8804
▁propeller	-11.8806
gar	-11.8808
▁ethic	-11.8809
mpson	-11.8809
▁Reco	-11.881
▁Bile	-11.881
▁granit	-11.8812
▁Juli	-11.8812
▁adorn	-11.8813
▁Mat	-11.8813
▁Zone	-11.8814
▁verbal	-11.8814
▁cater	-11.8815
▁tendenc	-11.8816
ending	-11.8818
hoo	-11.882
quet	-11.8821
resco	-11.8822
▁317	-11.8822
▁Cop	-11.8823
▁Biographer	-11.8825
▁Lesser	-11.883
sked	-11.8834
▁carbonari	-11.8834
itive	-11.8834
▁bubble	-11.8834
▁neo	-11.8838
▁Moth	-11.884
mpact	-11.884
ouser	-11.8849
▁lyric	-11.885
▁illuminat	-11.8851
▁residue	-11.8852
▁Dra	-11.8855
▁chromosome	-11.8859
▁Cooke	-11.8859
▁Treasur	-11.886
HA	-11.8862
▁morel	-11.8863
▁equall	-11.8867
▁Terri	-11.8868
lly	-11.8871
▁Plann	-11.8872
▁Len	-11.8875
onvention	-11.8876
▁Kristians	-11.8877
▁interactiv	-11.888
▁southward	-11.8883
anus	-11.8883
▁Herr	-11.8886
inz	-11.8886
▁recapture	-11.8888
▁undertake	-11.889
▁Cass	-11.8891
▁apprentice	-11.8894
▁Rou	-11.8896
▁j	-11.8897
▁Ramon	-11.89
▁Ice	-11.89
▁bent	-11.8901
▁reunite	-11.8908
NS	-11.891
▁composite	-11.8911
how	-11.8912
▁XII	-11.8914
▁assumption	-11.8914
▁Dor	-11.8919
▁spinn	-11.892
▁Bu	-11.8921
▁104	-11.8922
▁Maine	-11.8925
36	-11.8927
rio	-11.8929
▁rescu	-11.8946
▁watche	-11.895
hawk	-11.8953
▁portal	-11.8956
▁cuts	-11.8959
▁Charmbrac	-11.8959
▁enduring	-11.896
▁ditch	-11.896
▁Nf	-11.8961
▁Dare	-11.8971
tical	-11.8971
lotype	-11.8971
▁outrage	-11.8971
oli	-11.8982
▁enhanc	-11.8987
▁IU	-11.899
▁outage	-11.8991
rix	-11.8995
▁Elio	-11.9001
aire	-11.9002
▁commend	-11.9006
ottam	-11.9007
▁153	-11.9007
usa	-11.9011
▁embodi	-11.9011
▁VH	-11.9013
▁mandat	-11.9013
rez	-11.9026
▁lone	-11.9029
Pol	-11.9035
yclone	-11.9036
70	-11.9039
▁bout	-11.904
▁mono	-11.9045
RS	-11.905
identifi	-11.9054
utical	-11.9056
▁Hollow	-11.9066
▁voter	-11.9068
fax	-11.9082
▁royalt	-11.9083
chair	-11.9083
wyn	-11.9084
▁Santi	-11.9087
▁Cho	-11.9089
▁enclos	-11.9093
▁applie	-11.9093
▁oxidati	-11.9095
istan	-11.9102
▁Monte	-11.9103
▁Ric	-11.9109
▁ab	-11.9112
▁stimulat	-11.9116
digg	-11.9121
▁Ku	-11.9125
lves	-11.9126
▁manor	-11.9129
folk	-11.9135
▁Gama	-11.9138
fold	-11.9138
style	-11.9139
▁Kill	-11.915
▁Verti	-11.915
▁dominan	-11.9177
▁Stopp	-11.9184
▁overt	-11.9188
erous	-11.9195
▁embarrass	-11.9198
▁Sylvi	-11.9198
▁Mongol	-11.9198
▁Franco	-11.9201
▁polar	-11.9203
▁Thirt	-11.9204
semen	-11.9205
endra	-11.9208
ked	-11.9213
gamer	-11.9222
▁dot	-11.9226
▁dar	-11.9229
▁Labor	-11.9232
▁whistle	-11.9234
num	-11.9234
▁surve	-11.9237
mura	-11.9247
VA	-11.9248
▁Rough	-11.925
▁Circu	-11.9251
▁Phi	-11.9255
▁devis	-11.9257
▁observer	-11.926
rner	-11.9261
▁iconograph	-11.927
▁fus	-11.9275
▁brush	-11.9278
▁mould	-11.928
▁lobb	-11.9288
▁Bend	-11.9291
▁glaci	-11.9292
▁Politic	-11.9293
▁mo	-11.9297
▁refin	-11.9299
▁buff	-11.9299
▁CG	-11.9299
▁northwester	-11.9303
▁Amy	-11.9306
▁rotat	-11.9308
▁Bosnia	-11.9308
▁Connecti	-11.931
▁penetrate	-11.9311
39	-11.9312
cast	-11.9314
▁Drum	-11.9315
▁Pian	-11.9319
▁heroin	-11.932
▁Montenegr	-11.9325
▁convenien	-11.9327
▁Robot	-11.9328
▁advert	-11.933
oulevard	-11.9331
incin	-11.9331
▁folklor	-11.9332
▁Marcell	-11.9332
▁Beethoven	-11.9332
▁Hemisphere	-11.9332
▁Professional	-11.9332
▁Venezuela	-11.9332
▁immature	-11.9332
▁millimetre	-11.9332
▁sulfur	-11.9332
▁thunderstorm	-11.9332
▁mosaic	-11.9332
▁Nucle	-11.9332
▁maskray	-11.9332
▁sprite	-11.9332
▁mycologist	-11.9332
▁swift	-11.9332
▁Byzantine	-11.9332
▁truncat	-11.9332
▁Previous	-11.9332
▁lavish	-11.9332
▁Czech	-11.9332
▁Powder	-11.9332
▁cardinal	-11.9332
▁Cornwall	-11.9332
▁cottage	-11.9332
▁Tsuba	-11.9332
▁workshop	-11.9333
▁staircase	-11.9333
▁offspring	-11.9333
▁hub	-11.9333
▁calendar	-11.9333
▁volley	-11.9333
▁Prasad	-11.9333
▁sawmill	-11.9333
▁Continu	-11.9333
▁oath	-11.9333
▁patriot	-11.9333
▁interval	-11.9333
▁Diction	-11.9333
▁rapper	-11.9333
▁shatter	-11.9333
▁Totten	-11.9333
▁Fortune	-11.9333
▁nomad	-11.9333
▁André	-11.9333
▁portico	-11.9333
▁Awake	-11.9334
▁physicist	-11.9334
▁candidac	-11.9334
▁garage	-11.9334
▁Dragon	-11.9334
▁Acre	-11.9334
▁sandstone	-11.9334
▁choreograph	-11.9334
▁keyboards	-11.9335
▁Anime	-11.9335
▁Promotion	-11.9335
▁Stalin	-11.9335
▁Jesuit	-11.9335
▁disappearance	-11.9336
▁paperback	-11.9336
▁manifestation	-11.9336
▁columnist	-11.9336
▁Finance	-11.9337
▁eminent	-11.9337
▁medicine	-11.9337
▁mess	-11.9337
▁abrupt	-11.9337
▁instructor	-11.9337
▁nominal	-11.9337
▁discern	-11.9338
▁Grammar	-11.9338
▁nestling	-11.9338
▁Hunt	-11.9338
▁relic	-11.9339
▁Hardco	-11.934
▁prefecture	-11.934
▁sophisticat	-11.934
mp	-11.934
rdam	-11.934
▁unchang	-11.9341
▁Self	-11.9341
▁Variet	-11.9341
▁instant	-11.9342
DP	-11.9342
▁sensor	-11.9343
assl	-11.9343
▁amend	-11.9344
▁Underwood	-11.9344
▁Dard	-11.9344
▁racist	-11.9344
▁canyon	-11.9346
▁Borgn	-11.9347
▁1500	-11.9347
▁intensive	-11.9348
▁Beatle	-11.9349
mire	-11.9349
▁maker	-11.9349
▁clearance	-11.935
▁disruption	-11.935
▁Snell	-11.9351
▁filmmaker	-11.9353
▁microscopic	-11.9355
elope	-11.9355
▁Worthing	-11.9355
▁Driver	-11.9356
▁tag	-11.9357
▁Java	-11.9357
▁Regional	-11.9361
ervis	-11.9361
▁910	-11.9362
▁abolition	-11.9362
▁strings	-11.9367
▁Armor	-11.9368
▁panther	-11.9371
▁worsen	-11.9372
▁SF	-11.9374
▁isolate	-11.9377
▁Shah	-11.9377
▁lab	-11.9379
▁Cal	-11.9381
▁rejection	-11.9383
inrich	-11.9384
▁Lex	-11.9385
▁Masa	-11.9385
▁flexib	-11.9386
▁emitt	-11.9389
▁magnet	-11.9391
▁Cort	-11.9391
▁Kiss	-11.9392
▁Hob	-11.9399
▁Providen	-11.9399
▁Za	-11.94
▁canop	-11.9406
▁Economic	-11.9406
▁Wilder	-11.9408
▁infest	-11.9411
▁Capill	-11.9416
▁basal	-11.9418
▁Trent	-11.9421
ruiserweight	-11.9424
tiny	-11.9427
▁imply	-11.9433
▁Julius	-11.9435
q	-11.9438
neas	-11.9442
▁localiz	-11.9443
▁Trav	-11.9443
▁diocese	-11.9444
▁modest	-11.9445
▁consecrat	-11.9448
▁immortal	-11.9455
▁Glo	-11.9456
▁degrad	-11.9457
▁hom	-11.9458
yne	-11.9462
▁Shiba	-11.9469
▁citizen	-11.9469
▁ordinat	-11.947
anaka	-11.9471
▁downward	-11.9475
▁Zin	-11.9477
▁Pick	-11.9481
▁unhapp	-11.9484
▁sphere	-11.9494
▁trib	-11.9494
▁glor	-11.9496
FC	-11.9496
aj	-11.9498
▁undern	-11.9502
▁Pet	-11.9506
▁inclin	-11.9508
▁169	-11.9513
pin	-11.9517
▁Body	-11.9517
hler	-11.9524
▁Flor	-11.9524
▁Mah	-11.953
▁Chuck	-11.9532
▁liken	-11.9553
hapter	-11.9554
▁characterize	-11.9555
opter	-11.9558
▁Lear	-11.9559
▁Gros	-11.9562
▁gal	-11.9568
▁Chay	-11.9573
losa	-11.9582
ovenant	-11.9585
▁Hamp	-11.9593
▁Rating	-11.9594
▁teen	-11.9603
▁Patt	-11.9604
▁Conra	-11.9604
MA	-11.9608
▁gentle	-11.961
▁lakes	-11.9615
▁Wo	-11.9617
▁Carro	-11.9619
▁Werne	-11.9622
▁dece	-11.9622
▁designate	-11.9623
▁Hum	-11.9626
▁suspens	-11.9627
finger	-11.9628
yi	-11.963
hant	-11.9631
▁catalogue	-11.964
hon	-11.9643
break	-11.9647
▁Lyn	-11.9648
▁Nest	-11.9649
eller	-11.9649
▁evaluat	-11.9654
▁Bla	-11.9656
▁Compar	-11.9657
urti	-11.9675
ISA	-11.9678
atti	-11.9678
tto	-11.968
▁156	-11.9681
▁Fir	-11.9685
▁oversee	-11.969
'	-11.9691
▁RF	-11.9692
▁troubles	-11.9693
▁Reta	-11.9701
▁Flo	-11.9701
▁theft	-11.9704
▁educate	-11.9706
▁mills	-11.9715
▁accuse	-11.9718
▁Bet	-11.972
pg	-11.9723
pri	-11.9728
▁Levi	-11.9729
▁Kleine	-11.9729
gi	-11.9732
▁Ely	-11.9733
▁Sen	-11.9737
▁taxe	-11.9737
▁assemble	-11.9739
▁Tata	-11.9739
▁Ol	-11.9741
▁Bridges	-11.9748
▁petrol	-11.975
▁Surre	-11.9759
▁subsid	-11.9763
pproximate	-11.977
hari	-11.977
▁Carrie	-11.9771
▁confess	-11.9771
▁Mes	-11.9776
▁alternat	-11.9778
▁scratch	-11.9779
hai	-11.9783
▁Ir	-11.9784
▁tea	-11.9784
▁Mind	-11.9791
BSA	-11.9792
▁Poly	-11.9792
▁Kita	-11.9808
zo	-11.9809
▁graz	-11.9809
▁Earn	-11.981
▁dignit	-11.981
minent	-11.9812
ould	-11.9818
▁Shi	-11.9818
▁upward	-11.982
ootleg	-11.982
▁taxa	-11.9821
vo	-11.9824
▁Ant	-11.9827
▁Statistic	-11.9832
▁Georg	-11.9834
ET	-11.9834
▁obscure	-11.9836
art	-11.9836
▁cri	-11.9836
omplex	-11.9839
▁Aret	-11.9841
▁pile	-11.9842
▁Save	-11.9845
▁Cool	-11.985
bank	-11.9851
cane	-11.9853
▁lett	-11.9853
▁com	-11.9857
▁Distribut	-11.9858
ancouver	-11.9859
▁Jar	-11.9863
▁spear	-11.9871
▁Nag	-11.9872
dden	-11.9876
mm	-11.988
▁Hear	-11.9885
rate	-11.9886
▁archive	-11.9888
▁Coul	-11.989
▁elegan	-11.9892
▁divinit	-11.9892
ency	-11.9893
▁mega	-11.9904
▁Vale	-11.9906
▁advent	-11.9909
▁Lea	-11.991
▁Cope	-11.9911
▁Cedar	-11.9912
▁mediate	-11.9912
nea	-11.9913
▁hol	-11.9914
▁Hartle	-11.9916
keeper	-11.9916
▁civi	-11.9918
▁Hyde	-11.992
▁potato	-11.992
▁Alternative	-11.992
▁Distinguish	-11.992
▁Etymolog	-11.992
▁Extinct	-11.992
▁Ibrahim	-11.992
▁Reuben	-11.992
▁bequeath	-11.992
▁celestial	-11.992
▁contingent	-11.992
▁disastrous	-11.992
▁disgust	-11.992
▁enthusiasm	-11.992
▁extravagan	-11.992
▁inexperience	-11.992
▁kindergarten	-11.992
▁pamphlet	-11.992
▁repetitive	-11.992
▁suspicion	-11.992
▁vulgar	-11.992
▁Dhangar	-11.992
▁convincing	-11.992
▁sleeve	-11.992
▁ingredient	-11.9921
▁jaguar	-11.9921
▁Domestic	-11.9921
▁jihad	-11.9921
▁nominee	-11.9921
▁Article	-11.9921
▁Solomon	-11.9921
▁cosmetic	-11.9921
▁unprecedented	-11.9921
▁Frankfurt	-11.9921
▁girlfriend	-11.9921
▁subplot	-11.9921
▁muzzle	-11.9921
▁surname	-11.9921
▁Scratch	-11.9921
▁backdrop	-11.9921
▁qualification	-11.9921
▁Zombie	-11.9921
▁thumb	-11.9921
▁Puritan	-11.9921
▁Methodist	-11.9921
▁ridiculous	-11.9921
▁latitude	-11.9921
▁adverse	-11.9921
▁Disaster	-11.9921
▁configuration	-11.9921
▁cavit	-11.9921
▁Shield	-11.9921
▁lieutenant	-11.9921
▁Benadir	-11.9921
▁resent	-11.9921
▁prosecutor	-11.9921
▁veto	-11.9921
▁Hitler	-11.9922
emokrat	-11.9922
▁Zimmerman	-11.9922
▁unofficial	-11.9922
▁rails	-11.9922
▁Ritual	-11.9922
▁Rescue	-11.9922
▁Prairie	-11.9922
▁Quite	-11.9922
▁furious	-11.9922
▁Motherwell	-11.9922
▁roster	-11.9922
▁covenant	-11.9922
▁Radical	-11.9922
▁Croat	-11.9923
▁resemblance	-11.9923
▁Agust	-11.9923
▁UCL	-11.9923
▁badge	-11.9923
▁vacation	-11.9924
▁conspirac	-11.9924
▁Seventeen	-11.9924
▁Syno	-11.9924
▁Cause	-11.9924
▁Language	-11.9925
▁soph	-11.9925
▁vow	-11.9926
▁amendment	-11.9926
▁flare	-11.9926
▁fascist	-11.9926
▁inappropriate	-11.9926
▁Slo	-11.9926
▁contaminat	-11.9927
▁spillway	-11.9927
▁Dominion	-11.9927
▁destructive	-11.9927
▁Nicola	-11.9928
▁guardian	-11.9928
▁dive	-11.9928
▁Elder	-11.9929
▁rookie	-11.9929
▁Aviv	-11.9929
▁justifi	-11.9929
▁distributor	-11.9929
tar	-11.993
▁Athen	-11.993
▁delight	-11.993
▁feminist	-11.993
▁1790	-11.9931
▁Kendal	-11.9931
▁technological	-11.9931
▁geological	-11.9932
▁Devil	-11.9932
▁devil	-11.9932
▁ankle	-11.9933
▁Passion	-11.9935
▁transitive	-11.9936
▁beast	-11.9937
▁stranger	-11.9937
▁Sergi	-11.9938
rivate	-11.9938
eum	-11.9939
▁maat	-11.9939
▁robber	-11.9939
▁scarce	-11.9939
▁installment	-11.994
▁fake	-11.9941
▁Wake	-11.9941
▁Anglic	-11.9941
▁backup	-11.9942
▁Historian	-11.9943
▁vanish	-11.9945
▁galley	-11.9946
▁chao	-11.9946
▁Franciscan	-11.9946
▁wel	-11.9948
▁Rare	-11.9949
▁Pond	-11.9949
▁Mental	-11.9949
▁hostage	-11.995
▁revert	-11.995
▁Letter	-11.9952
▁spouse	-11.9952
▁virtuos	-11.9953
▁Trom	-11.9954
▁tired	-11.9957
▁array	-11.9957
▁selective	-11.9957
▁sampl	-11.9958
▁Arabian	-11.9958
▁synthesizer	-11.9958
▁Factor	-11.996
▁Dante	-11.9961
▁Vern	-11.9961
▁Gen	-11.9963
▁unbea	-11.9964
▁cruis	-11.9965
▁Fork	-11.9966
▁mural	-11.9975
▁Alexandr	-11.9976
▁358	-11.9976
▁Jess	-11.9976
▁Nek	-11.9978
▁stead	-11.9984
▁packag	-11.9984
▁McAl	-11.9985
▁Forge	-11.9986
▁Shear	-11.9987
▁plead	-11.9988
▁alloy	-11.9988
▁Karnata	-11.9988
▁Nic	-11.9988
ohn	-11.9988
▁wrestler	-11.999
▁Cabin	-11.9992
org	-11.9996
▁tr	-11.9997
bia	-12.0002
trick	-12.001
▁Starr	-12.0011
oll	-12.0014
▁specification	-12.0015
▁innovati	-12.0016
kok	-12.0017
▁Cover	-12.0019
874	-12.0019
▁Publisher	-12.002
▁Elvi	-12.0021
▁Maid	-12.0022
▁lineage	-12.0023
▁begu	-12.0024
▁worm	-12.0027
lam	-12.0029
ushing	-12.0029
▁Cret	-12.003
estig	-12.0031
▁encompass	-12.0032
▁synthet	-12.0035
▁Rise	-12.0036
▁Bann	-12.004
▁presenter	-12.004
▁Shop	-12.0044
▁corporation	-12.0048
icea	-12.005
▁Graves	-12.005
hiro	-12.005
aries	-12.0052
▁nut	-12.0061
▁Barret	-12.0063
▁radial	-12.0065
▁Buddh	-12.0067
▁Hutch	-12.0067
▁Ibar	-12.0072
▁funera	-12.0074
▁opener	-12.0076
▁Model	-12.0082
▁tick	-12.0082
sch	-12.0083
▁communicate	-12.0087
▁thematic	-12.0091
▁dragon	-12.0091
▁Knight	-12.0101
▁109	-12.0107
rek	-12.0112
▁Sau	-12.0112
▁collid	-12.0115
stick	-12.012
▁citation	-12.0121
▁Narv	-12.0122
static	-12.0123
▁Update	-12.0124
NH	-12.0127
cat	-12.0128
como	-12.0129
▁Gua	-12.0131
▁af	-12.0131
▁Image	-12.0136
tzpa	-12.0141
aiyu	-12.0142
tant	-12.0145
▁elevate	-12.0148
▁Geo	-12.0148
lé	-12.0148
▁Spa	-12.0151
direct	-12.0155
▁repell	-12.0156
▁murderer	-12.0157
uilt	-12.0164
ela	-12.0165
▁Samp	-12.0167
▁rushe	-12.017
▁Rad	-12.0172
▁ye	-12.0174
▁Sid	-12.0182
hn	-12.0185
▁powder	-12.0191
mer	-12.0196
yang	-12.0196
▁Kau	-12.0201
▁Milan	-12.0202
bone	-12.0202
▁activate	-12.0202
azzi	-12.0216
▁fringe	-12.0223
▁maxim	-12.0224
▁replie	-12.0236
▁rendering	-12.0237
▁Fé	-12.0239
▁Arr	-12.0242
▁cab	-12.0245
arnest	-12.0245
nic	-12.025
▁fe	-12.0258
▁sage	-12.0266
operating	-12.0268
▁Owe	-12.0268
▁Sola	-12.027
eff	-12.0271
▁Kaua	-12.0272
▁serializ	-12.0281
▁Liber	-12.0292
▁differentiate	-12.0295
▁Bol	-12.03
can	-12.0303
▁Beverl	-12.0309
boom	-12.0315
▁Raj	-12.0318
▁Mona	-12.032
▁Verne	-12.0321
through	-12.0322
▁lunch	-12.0323
▁regulat	-12.0326
mac	-12.0332
▁legendar	-12.0332
▁Sclerodermat	-12.0337
▁survivor	-12.034
SB	-12.0342
pping	-12.0344
▁Riv	-12.0347
▁unrele	-12.0351
rane	-12.0353
▁dean	-12.0355
deo	-12.0357
▁expresse	-12.0367
rank	-12.0369
ice	-12.0382
di	-12.0383
▁133	-12.0384
deck	-12.0386
▁trou	-12.0388
▁reunit	-12.0394
▁Cann	-12.0401
▁unsur	-12.0405
▁interfere	-12.0406
▁showcase	-12.041
▁NA	-12.041
▁Moors	-12.0411
▁freeze	-12.0411
▁Rog	-12.0415
liation	-12.0423
orda	-12.0425
HF	-12.0429
▁reuse	-12.044
▁Landing	-12.0447
kan	-12.0447
▁Shot	-12.045
▁Hens	-12.0454
Der	-12.0458
▁bra	-12.0458
▁demons	-12.0459
▁Balli	-12.0468
▁microscop	-12.0468
▁Sex	-12.047
ague	-12.0472
opa	-12.0474
roz	-12.0475
▁sculpt	-12.0482
▁Travel	-12.049
▁dop	-12.0494
eley	-12.0496
lik	-12.0497
▁Kaj	-12.0506
▁Boa	-12.0507
building	-12.0509
▁Grande	-12.0511
▁shopp	-12.0518
▁mounting	-12.0518
terrestrial	-12.0519
▁hack	-12.0519
ula	-12.0523
▁Find	-12.0523
▁exercis	-12.0525
▁Brom	-12.0526
▁Larg	-12.0531
▁Swans	-12.0531
▁Dodge	-12.0532
rock	-12.0533
productive	-12.0533
▁Doug	-12.0539
▁Spin	-12.054
▁Chick	-12.054
▁idol	-12.0541
▁drunk	-12.0541
▁blank	-12.0541
▁Abbot	-12.0542
▁Jump	-12.0542
▁Develop	-12.0543
▁accura	-12.0545
Spisevognselskap	-12.0545
punctat	-12.0545
▁Achievement	-12.0545
▁Nueces	-12.0545
▁Ptolem	-12.0545
▁Restaurant	-12.0545
▁conjoin	-12.0545
▁efficienc	-12.0545
▁enlighten	-12.0545
▁floodplain	-12.0545
▁hierarch	-12.0545
▁patriarch	-12.0545
▁ruthless	-12.0545
▁Ethiopia	-12.0545
▁Vatican	-12.0545
▁transplant	-12.0545
▁comrade	-12.0546
▁Panzergrenadier	-12.0546
▁feminin	-12.0546
▁ordinance	-12.0546
▁overthrow	-12.0546
▁gesture	-12.0546
▁Tanzania	-12.0546
▁diagram	-12.0546
▁Eduard	-12.0546
▁Immediate	-12.0546
▁intricate	-12.0546
▁fauna	-12.0546
▁Penguin	-12.0546
▁transept	-12.0546
▁Salmon	-12.0546
▁unreliab	-12.0546
▁Gospel	-12.0546
▁Desert	-12.0546
▁genius	-12.0546
▁Inocyb	-12.0546
▁bulb	-12.0546
▁mercenar	-12.0546
▁hadrosaurid	-12.0546
▁Arbeideren	-12.0546
▁copyright	-12.0546
▁ordnance	-12.0546
▁Kitsune	-12.0546
▁Lanois	-12.0546
▁database	-12.0546
▁labyrinth	-12.0546
▁cartridge	-12.0546
▁vegetable	-12.0546
▁referendum	-12.0546
▁receiver	-12.0546
▁classify	-12.0546
▁pneumonia	-12.0546
▁Edwin	-12.0546
▁unwilling	-12.0546
▁enclosure	-12.0546
▁pillar	-12.0546
▁caretaker	-12.0546
▁orientation	-12.0547
▁crater	-12.0547
▁retrospective	-12.0547
▁mistress	-12.0547
▁splinter	-12.0547
▁renumber	-12.0547
▁splash	-12.0547
▁diplomat	-12.0547
▁treatise	-12.0547
▁Spence	-12.0547
▁Diocese	-12.0547
▁Vasco	-12.0547
▁Everett	-12.0547
▁Cameron	-12.0548
▁implication	-12.0548
▁Alamo	-12.0548
▁stela	-12.0548
▁melanchol	-12.0549
▁Liga	-12.0549
▁Bahama	-12.0549
▁Groen	-12.0549
▁prescribe	-12.0549
▁altitude	-12.055
▁pageant	-12.055
▁Alliance	-12.0551
▁Tank	-12.0551
▁detachment	-12.0551
▁gentleman	-12.0551
▁hopeful	-12.0551
▁aesthetic	-12.0551
▁Preparation	-12.0551
▁lambeosaurine	-12.0552
▁quotation	-12.0552
▁Faith	-12.0552
▁pedal	-12.0552
▁bullet	-12.0553
▁Iceland	-12.0553
▁broadside	-12.0553
▁Producer	-12.0553
▁Lanka	-12.0553
▁classmate	-12.0553
▁heredit	-12.0553
▁Tsar	-12.0553
▁skeptic	-12.0554
▁recycl	-12.0554
▁spout	-12.0554
▁lens	-12.0554
▁lodge	-12.0554
▁Amazon	-12.0555
▁expell	-12.0555
▁hydro	-12.0555
▁discretion	-12.0555
▁abdom	-12.0555
▁Robbie	-12.0555
▁wagon	-12.0555
▁raft	-12.0556
▁spp	-12.0556
▁Converse	-12.0556
▁priva	-12.0557
▁Guest	-12.0557
▁Judge	-12.0558
▁shutout	-12.0558
▁grayish	-12.0559
▁Boliv	-12.0559
▁ferry	-12.0559
▁167	-12.056
▁Vienn	-12.0561
▁Maclag	-12.0562
▁1660	-12.0562
▁Mercur	-12.0562
▁contradiction	-12.0562
▁Semiti	-12.0563
▁autonomous	-12.0563
▁penetrat	-12.0564
▁tele	-12.0565
▁spaceship	-12.0565
ei	-12.0565
laughter	-12.0565
delbac	-12.0565
▁Morocc	-12.0567
▁till	-12.0568
▁Kor	-12.0568
▁lend	-12.0568
ider	-12.0569
▁polish	-12.057
▁claw	-12.057
▁gleba	-12.0571
▁gase	-12.0571
▁replica	-12.0572
▁Cake	-12.0572
▁deposition	-12.0573
teen	-12.0574
▁posture	-12.0575
row	-12.0576
▁bride	-12.0576
▁Broom	-12.0577
▁Poem	-12.0577
33	-12.0579
▁Bard	-12.0579
eck	-12.058
▁Graci	-12.058
▁1845	-12.0581
▁steeple	-12.0582
▁chant	-12.0585
▁decent	-12.0586
▁Gibr	-12.0587
▁auction	-12.0588
▁accelerate	-12.0589
▁Brittan	-12.059
▁Grow	-12.059
▁equat	-12.0591
▁Alien	-12.0591
▁allusion	-12.0593
▁duck	-12.0593
▁mud	-12.0596
▁surgeon	-12.0597
▁denial	-12.0599
▁Des	-12.0603
▁logg	-12.0604
▁LP	-12.0605
▁Takum	-12.0607
▁moralit	-12.0607
▁pac	-12.0609
▁degenerate	-12.0609
urstin	-12.062
ht	-12.0622
▁utilize	-12.0622
ilda	-12.0628
oft	-12.063
▁oh	-12.0638
▁continuation	-12.0639
bus	-12.0641
▁Cod	-12.0641
▁Gaul	-12.0642
▁addict	-12.0643
bed	-12.0646
▁gems	-12.065
nia	-12.0653
▁detector	-12.0654
erson	-12.0656
▁adviser	-12.0656
▁Epi	-12.066
usz	-12.066
▁Labori	-12.0661
atory	-12.0666
▁Scar	-12.0666
▁Sayi	-12.0669
oaltender	-12.0671
▁roundabout	-12.0672
▁Polyt	-12.0672
▁Gala	-12.0676
▁Forever	-12.0677
▁lobby	-12.068
unge	-12.068
aff	-12.0681
▁paradox	-12.0682
▁boxes	-12.0686
▁Cand	-12.0688
RU	-12.0688
▁tender	-12.0689
▁Event	-12.069
scot	-12.0695
▁Magno	-12.0698
emma	-12.0699
▁manipulate	-12.0699
cio	-12.0701
▁Scha	-12.0701
▁Whe	-12.0702
▁Petri	-12.0706
▁lateral	-12.0707
▁nitro	-12.0721
▁Claud	-12.0722
▁charg	-12.0722
▁Draw	-12.0726
bul	-12.0728
pector	-12.0729
▁Garret	-12.0729
Y	-12.0731
qui	-12.0731
▁vine	-12.0735
▁Ledge	-12.0737
▁Venge	-12.0737
▁Hartman	-12.0738
▁unite	-12.0738
▁tap	-12.0741
▁Num	-12.0742
▁Pont	-12.0742
▁execute	-12.0742
▁Fan	-12.0745
▁ze	-12.0745
aving	-12.0746
▁Pul	-12.0747
▁Sale	-12.0747
tire	-12.0748
▁Blacks	-12.0749
▁epi	-12.0753
▁Klein	-12.0753
▁mod	-12.0754
▁pap	-12.0754
▁Springs	-12.0758
▁Gamer	-12.076
▁Jet	-12.0762
▁projection	-12.0762
▁reproduce	-12.0762
▁Sc	-12.0763
Cd	-12.0764
▁Friend	-12.0765
▁popul	-12.0767
▁triangula	-12.077
▁mob	-12.0775
▁PS	-12.078
court	-12.0782
▁matri	-12.0784
scape	-12.0784
▁calculate	-12.0793
▁Bona	-12.0793
▁Wadi	-12.0798
▁serialis	-12.08
▁Shab	-12.0805
▁Ein	-12.0812
▁Rey	-12.0815
▁Bost	-12.0826
▁muster	-12.0826
▁Hale	-12.0842
▁Priv	-12.0843
owitz	-12.0843
▁rever	-12.0844
▁phylogen	-12.0847
▁Veron	-12.085
▁Bate	-12.0852
▁fence	-12.0854
▁Poll	-12.0856
▁Wat	-12.0857
▁Gio	-12.0863
▁Kami	-12.0866
▁trans	-12.0867
▁Plant	-12.0875
▁cr	-12.0879
▁chains	-12.0881
cles	-12.0883
▁understo	-12.0889
▁Perc	-12.0891
▁Seg	-12.0899
▁Mulle	-12.0901
▁immun	-12.0912
nna	-12.0914
▁raw	-12.0915
▁cycl	-12.0917
ansas	-12.092
▁Harv	-12.0923
▁reprise	-12.0923
wan	-12.0923
▁Ecolog	-12.0923
▁Salt	-12.0926
itter	-12.0927
▁vegeta	-12.0932
mother	-12.0933
▁employer	-12.0933
▁Babylonia	-12.0935
▁resid	-12.0936
pple	-12.0936
▁Sue	-12.0936
uzh	-12.0939
lage	-12.0941
▁behave	-12.0942
tian	-12.0944
▁Heath	-12.0948
▁shake	-12.0951
cu	-12.0955
uki	-12.0957
TO	-12.0957
▁sketche	-12.0958
▁Oah	-12.0961
▁Notes	-12.0967
continent	-12.0968
93	-12.0968
forth	-12.0972
plan	-12.0973
▁mot	-12.0974
Chuck	-12.0978
CP	-12.0979
▁torr	-12.0981
develop	-12.0982
ultimate	-12.0984
▁nucleol	-12.0984
▁drains	-12.0988
▁hu	-12.0994
ntus	-12.0995
▁subgen	-12.0995
iac	-12.0999
altar	-12.1
stage	-12.1006
▁Alpha	-12.1006
tze	-12.101
▁reachab	-12.1012
finish	-12.1014
▁ceas	-12.1017
▁RE	-12.1018
▁Dana	-12.102
▁judicia	-12.102
hope	-12.1021
▁Sheen	-12.1023
▁319	-12.1025
▁Aid	-12.1035
olithic	-12.1035
▁128	-12.1041
▁casua	-12.1043
▁Ment	-12.1048
tsu	-12.1052
nka	-12.1055
▁Michaels	-12.1055
base	-12.1055
▁Rid	-12.1055
▁157	-12.1061
▁pes	-12.1063
▁Osi	-12.1064
▁Jur	-12.1065
▁Eval	-12.1065
▁cellula	-12.1066
▁galericulat	-12.1074
▁confusi	-12.1075
▁reorganis	-12.1081
odes	-12.1082
our	-12.1088
▁renovat	-12.1091
▁denot	-12.1094
▁q	-12.1097
▁fraction	-12.1097
▁Gre	-12.1099
▁facilitat	-12.11
▁stimulate	-12.1103
▁statistical	-12.1103
▁Nico	-12.1103
▁cock	-12.1107
▁spher	-12.1107
lich	-12.1107
▁Hunting	-12.1108
▁Wool	-12.1109
▁Reed	-12.1111
▁compensati	-12.1114
▁bend	-12.1115
▁Lands	-12.1116
▁Antioch	-12.1117
tte	-12.1126
▁vacan	-12.1128
▁stereotype	-12.1133
▁choos	-12.1133
▁implie	-12.1134
▁Northeast	-12.1135
▁Shawn	-12.1138
erzy	-12.1141
hard	-12.1142
ave	-12.1142
▁Rao	-12.1146
hall	-12.1146
▁deserve	-12.1147
▁package	-12.1153
▁clinic	-12.1153
▁simulate	-12.1153
há	-12.1159
▁Gin	-12.1159
▁periodic	-12.1166
▁Ou	-12.1171
43	-12.1173
▁confin	-12.1175
▁refit	-12.1177
▁profession	-12.1179
▁168	-12.1181
loo	-12.1181
▁smash	-12.1187
▁infra	-12.119
ub	-12.1193
▁terminat	-12.1197
bbot	-12.1199
cientific	-12.1202
lett	-12.1203
▁exert	-12.1205
▁Hama	-12.1206
▁inhibit	-12.1207
▁harass	-12.121
raffic	-12.121
capul	-12.1212
▁Amendment	-12.1212
▁Confederac	-12.1212
▁Croydon	-12.1212
▁Example	-12.1212
▁Guatemala	-12.1212
▁Scientologist	-12.1212
▁Sihanouk	-12.1212
▁Thousand	-12.1212
▁constituent	-12.1212
▁fatigue	-12.1212
▁magistrate	-12.1212
▁martyr	-12.1212
▁quarterfinal	-12.1212
▁revamp	-12.1212
▁vizier	-12.1212
▁messenger	-12.1212
▁Sybil	-12.1212
▁grenade	-12.1212
▁thrust	-12.1212
▁Provision	-12.1212
▁Tatanka	-12.1212
▁cytogenetic	-12.1212
▁disembark	-12.1212
▁ineffective	-12.1212
▁ambiguous	-12.1212
▁Holiday	-12.1212
▁conspirator	-12.1212
▁Oghra	-12.1212
▁humour	-12.1212
▁uncomm	-12.1212
▁ectomycorrhiza	-12.1212
▁levee	-12.1212
▁Soundtrack	-12.1212
▁flavor	-12.1212
▁unfortunate	-12.1212
▁Swift	-12.1212
▁Deput	-12.1212
▁nymph	-12.1212
▁peasant	-12.1212
▁detract	-12.1212
▁Egyptologist	-12.1212
▁Hamburg	-12.1213
▁energetic	-12.1213
▁federation	-12.1213
▁Adolf	-12.1213
▁gallon	-12.1213
▁Carnival	-12.1213
▁Mosque	-12.1213
▁warehouse	-12.1213
▁visor	-12.1213
▁Tomorrow	-12.1213
▁fledgling	-12.1213
▁submission	-12.1213
▁misunderst	-12.1213
▁Moresby	-12.1213
▁landslide	-12.1213
▁Stra	-12.1213
▁subtype	-12.1213
▁sociologist	-12.1213
▁Hispanic	-12.1213
▁justify	-12.1213
▁lunar	-12.1213
▁speckle	-12.1214
▁certificat	-12.1214
▁Revival	-12.1214
▁Jamaica	-12.1214
▁gloss	-12.1214
▁Monster	-12.1214
▁octagon	-12.1214
▁torso	-12.1214
▁computation	-12.1214
▁cinematograph	-12.1214
▁revisit	-12.1214
▁paratrooper	-12.1214
▁Harper	-12.1214
▁urgent	-12.1214
▁Alleg	-12.1215
▁Borderers	-12.1215
▁calibre	-12.1215
▁typewriter	-12.1215
▁utilit	-12.1215
▁obsession	-12.1215
▁Peck	-12.1215
▁unifi	-12.1215
▁Institution	-12.1216
▁angel	-12.1216
▁Mysore	-12.1216
▁punk	-12.1216
▁Stela	-12.1216
▁crossover	-12.1216
▁Mead	-12.1216
▁paternal	-12.1217
▁Interior	-12.1217
▁chin	-12.1217
xchange	-12.1217
▁reef	-12.1218
ffman	-12.1219
boat	-12.1219
▁Pandu	-12.1219
▁systematic	-12.1219
▁motivation	-12.122
▁Tepe	-12.122
▁MAC	-12.122
▁Slash	-12.1221
▁bridgehead	-12.1221
▁Raven	-12.1221
▁likelihood	-12.1221
▁Pier	-12.1222
▁GPU	-12.1222
▁desk	-12.1222
▁frog	-12.1222
▁Steff	-12.1223
▁Marina	-12.1223
▁Milton	-12.1223
▁glow	-12.1223
▁Pap	-12.1224
▁Alaska	-12.1224
▁spiral	-12.1224
▁reproductive	-12.1224
▁meteorological	-12.1225
ivor	-12.1226
▁Gy	-12.1227
▁passport	-12.1228
▁confession	-12.1228
▁Keep	-12.1228
▁doorway	-12.1231
▁Programme	-12.1231
▁shipyard	-12.1231
▁champ	-12.1232
▁Khe	-12.1232
▁Firecr	-12.1232
▁financ	-12.1232
▁cylinder	-12.1233
▁Trev	-12.1234
aragua	-12.1234
utla	-12.1234
▁prohibition	-12.1235
▁milestone	-12.1235
▁beaver	-12.1236
ibot	-12.1238
▁bor	-12.1238
▁Virgi	-12.1239
erdale	-12.124
▁Anatolia	-12.1241
▁Guerr	-12.1242
▁Kress	-12.1242
▁punch	-12.1242
ascade	-12.1243
▁Moham	-12.1245
▁pub	-12.1246
▁Nige	-12.1251
luxe	-12.1252
▁unop	-12.1252
▁Button	-12.1252
▁stunning	-12.1259
▁combatant	-12.1259
napper	-12.126
hāv	-12.126
MW	-12.126
▁Atkin	-12.1261
▁Loud	-12.1263
▁Wait	-12.1263
▁450	-12.1267
▁Alma	-12.1267
▁vest	-12.1273
▁mystic	-12.1273
▁jeweller	-12.1274
yaku	-12.1274
▁Nott	-12.1275
▁cage	-12.1276
▁Scap	-12.1277
▁Eyes	-12.128
borg	-12.1282
▁nail	-12.1282
iate	-12.1285
▁Holme	-12.1289
▁bolt	-12.1296
▁Ex	-12.1296
▁provisional	-12.1299
▁theorist	-12.1301
etter	-12.1301
▁Barn	-12.1302
▁Crew	-12.1304
▁obscur	-12.131
▁Else	-12.131
▁taper	-12.131
▁Mine	-12.1314
▁Citr	-12.1314
▁Isi	-12.1315
▁Simm	-12.1316
▁Could	-12.1317
▁professors	-12.1318
▁bin	-12.1319
▁Lope	-12.1321
▁Andre	-12.1324
▁po	-12.1327
kau	-12.1328
▁Fate	-12.1328
▁Cinema	-12.133
▁corners	-12.133
▁Chenn	-12.1332
ramer	-12.1334
▁Tai	-12.1338
▁stabiliz	-12.1338
erald	-12.1342
▁photos	-12.1344
▁pier	-12.1347
▁Byr	-12.1352
▁Boyz	-12.1352
▁liberat	-12.1354
▁172	-12.1358
▁Bread	-12.1363
▁legislat	-12.1363
▁Need	-12.1364
▁dune	-12.1369
▁herb	-12.137
▁tart	-12.1372
▁Sicil	-12.1374
ooley	-12.1376
▁Sai	-12.1379
▁proph	-12.1384
kind	-12.1384
ascar	-12.1387
▁Sur	-12.1395
gu	-12.1398
gau	-12.1401
▁aggregat	-12.1403
▁plume	-12.1404
▁Mackina	-12.1405
▁Astr	-12.1406
▁GM	-12.1407
▁Lyrical	-12.1409
enberg	-12.1412
▁flourish	-12.1415
GS	-12.1416
▁summariz	-12.1418
SO	-12.142
▁Barra	-12.142
▁Yat	-12.1421
▁drops	-12.1421
▁equator	-12.1425
▁Wide	-12.1426
▁wit	-12.1426
hr	-12.1426
▁spy	-12.1431
▁Mot	-12.1431
antara	-12.1431
▁synthesiz	-12.1434
▁proportional	-12.1445
▁sided	-12.1452
▁voic	-12.1455
▁timeline	-12.1457
▁Prim	-12.1457
ronym	-12.1457
▁Rev	-12.1459
▁ghats	-12.1459
▁lady	-12.1459
raine	-12.146
beat	-12.1466
CI	-12.1468
▁Miles	-12.1468
▁refiner	-12.1474
▁Hou	-12.1478
oke	-12.1481
lf	-12.1482
aría	-12.1485
▁inevitabl	-12.1486
▁AM	-12.149
▁Code	-12.1494
igh	-12.1498
▁solitar	-12.1505
tones	-12.1508
08	-12.1509
ruz	-12.1509
sel	-12.1513
og	-12.1519
▁Browns	-12.1522
▁dishe	-12.1524
▁Loh	-12.1524
▁124	-12.1525
▁Monda	-12.1541
▁Global	-12.1543
hampton	-12.1543
uk	-12.155
pani	-12.1554
enne	-12.1554
▁seam	-12.1555
▁specialis	-12.1557
▁Burr	-12.1559
▁shade	-12.1571
▁Aber	-12.1578
▁Bl	-12.1579
normal	-12.1579
▁Dre	-12.158
dah	-12.1582
anama	-12.1586
▁Stand	-12.1591
▁lonel	-12.1599
▁Stegosaur	-12.1605
▁echoe	-12.1606
▁forbidd	-12.1611
▁stud	-12.1613
rus	-12.1614
▁blues	-12.1617
▁Gonn	-12.1618
▁outward	-12.1619
▁nett	-12.1619
▁pave	-12.1623
▁gravel	-12.1626
▁relocate	-12.1627
▁Middles	-12.1629
ourage	-12.163
▁Kala	-12.163
▁eclipse	-12.1644
wana	-12.1644
mon	-12.1656
publish	-12.1658
▁Hold	-12.1662
trophy	-12.1663
▁Suf	-12.1664
▁Cat	-12.1669
▁SP	-12.167
▁impose	-12.1676
▁Enn	-12.1683
▁Rows	-12.1683
ctari	-12.1684
guan	-12.1686
▁rac	-12.1686
Connor	-12.1686
ug	-12.1687
lift	-12.1691
pen	-12.1693
▁Moto	-12.1693
accessib	-12.1696
film	-12.1699
tower	-12.1699
supply	-12.1699
plus	-12.17
grave	-12.1706
lent	-12.1708
discover	-12.171
▁Sales	-12.1711
▁Recordings	-12.1711
adequate	-12.1714
▁induce	-12.1716
▁Pas	-12.1721
cribe	-12.1722
HC	-12.1724
parte	-12.1725
▁Cros	-12.1726
▁202	-12.1731
balla	-12.1733
▁evoke	-12.1738
ural	-12.1739
▁Afterward	-12.174
FI	-12.1744
▁Rosa	-12.1748
GB	-12.1749
▁Heid	-12.1749
bu	-12.1751
▁rulers	-12.1761
▁chi	-12.1762
▁Leader	-12.1763
corporate	-12.1769
onnais	-12.1778
una	-12.178
aroque	-12.1784
▁Emer	-12.1784
illa	-12.1793
▁airb	-12.1794
▁Chad	-12.1796
hold	-12.1798
221	-12.1798
▁Willi	-12.1798
▁abus	-12.1798
utomobile	-12.1804
▁freez	-12.1807
▁sympath	-12.1808
▁crab	-12.1814
arcel	-12.1818
▁Nol	-12.1822
ologist	-12.1824
▁Glor	-12.1825
LI	-12.1829
▁Pale	-12.1831
▁nurs	-12.1835
▁Crime	-12.1838
▁apologize	-12.184
▁happi	-12.1841
ashi	-12.1842
ige	-12.1845
▁terminate	-12.1848
▁smuggl	-12.185
▁Southwest	-12.1855
BI	-12.1857
▁Saga	-12.1858
ulan	-12.1861
rtha	-12.1866
aak	-12.1867
scopic	-12.1869
▁Axi	-12.1871
▁View	-12.1871
lister	-12.1872
ried	-12.1876
▁fi	-12.1877
▁sentenc	-12.1883
▁emit	-12.1885
thlon	-12.1885
lav	-12.1888
▁Climat	-12.1889
▁Prison	-12.1891
▁Hence	-12.1892
phan	-12.1893
ador	-12.1894
▁Terror	-12.1894
apse	-12.1895
▁palm	-12.1897
▁automat	-12.1899
▁Gel	-12.19
▁storytell	-12.19
▁curricul	-12.1901
nity	-12.1903
rescent	-12.1904
▁Manning	-12.1904
agh	-12.1907
mo	-12.191
▁restructur	-12.191
▁Multi	-12.191
▁crusade	-12.1916
▁cubic	-12.1916
▁Alban	-12.1917
sma	-12.1918
▁erupt	-12.1919
▁merc	-12.1919
▁grip	-12.192
▁exaggerat	-12.192
hestnut	-12.1922
▁107	-12.1923
▁socio	-12.1923
▁whiske	-12.1924
▁stipe	-12.1925
▁Ishmael	-12.1926
idas	-12.1926
egislature	-12.1926
nfortunate	-12.1926
▁Madhva	-12.1926
▁Confederation	-12.1926
▁Conflict	-12.1926
▁Establish	-12.1926
▁Gloucester	-12.1926
▁Kalyanasundara	-12.1926
▁Presbyterian	-12.1926
▁Selenite	-12.1926
▁Tournament	-12.1926
▁ambulance	-12.1926
▁aristocrat	-12.1926
▁constellation	-12.1926
▁erroneous	-12.1926
▁intermittent	-12.1926
▁leisure	-12.1926
▁nightclub	-12.1926
▁outflank	-12.1926
▁reggae	-12.1926
▁precursor	-12.1926
▁Isaac	-12.1926
▁hilarious	-12.1926
▁Soldier	-12.1927
aqqa	-12.1927
▁bolster	-12.1927
▁clarifi	-12.1927
▁improper	-12.1927
▁administrator	-12.1927
▁Reuter	-12.1927
▁cockpit	-12.1927
▁landowner	-12.1927
▁proponent	-12.1927
Apollo	-12.1927
▁councillor	-12.1927
tiè	-12.1927
▁furni	-12.1927
▁Wolver	-12.1927
▁Aaron	-12.1927
▁viper	-12.1927
lude	-12.1927
elecommunication	-12.1927
▁canvas	-12.1927
▁masterpiece	-12.1927
▁Schmid	-12.1927
▁insurgenc	-12.1927
▁Kemal	-12.1927
▁signify	-12.1927
▁Culver	-12.1927
▁instabilit	-12.1927
▁Assault	-12.1927
▁Atomic	-12.1927
▁tentative	-12.1927
▁frill	-12.1927
▁bedroom	-12.1928
▁fresco	-12.1928
▁spruce	-12.1928
incendi	-12.1928
▁Typical	-12.1928
▁Cunning	-12.1928
▁preview	-12.1928
▁Zyg	-12.1928
▁Ukrainian	-12.1928
▁Griffin	-12.1928
▁Krypton	-12.1928
▁tribble	-12.1928
▁filter	-12.1928
▁persecution	-12.1928
▁incense	-12.1928
▁Hernan	-12.1929
▁Marseille	-12.1929
hang	-12.1929
▁compulsor	-12.1929
▁overturn	-12.1929
▁Sterl	-12.1929
lotilla	-12.1929
▁Ravana	-12.1929
▁areolat	-12.193
▁Cardell	-12.193
▁fuck	-12.193
▁Technical	-12.193
▁eternal	-12.193
▁shortlist	-12.1931
▁Rubin	-12.1931
▁Strateg	-12.1932
▁segregat	-12.1932
▁screenwriter	-12.1932
▁rehearsal	-12.1932
▁1770	-12.1933
▁embass	-12.1933
▁howitzer	-12.1933
▁carriageway	-12.1933
▁Orange	-12.1934
▁Gavin	-12.1934
▁Ble	-12.1934
master	-12.1935
▁cheat	-12.1935
▁Savo	-12.1935
▁volcano	-12.1935
▁contraceptive	-12.1935
▁peat	-12.1935
▁Prayer	-12.1936
▁overlapp	-12.1936
▁iodi	-12.1936
▁prognos	-12.1936
▁inspection	-12.1936
▁conscientious	-12.1936
▁fraud	-12.1936
▁collaborator	-12.1937
▁Cash	-12.1938
▁Selection	-12.1938
▁Luc	-12.1939
▁newborn	-12.194
▁Vicker	-12.194
▁Mun	-12.194
▁reluctant	-12.1941
▁accompaniment	-12.1941
▁tanner	-12.1941
▁reunion	-12.1941
▁Hour	-12.1942
▁Bhai	-12.1942
▁Dodger	-12.1943
▁splic	-12.1944
▁adjoin	-12.1944
▁freighter	-12.1945
▁coil	-12.1945
▁lining	-12.1947
▁210	-12.1947
▁ancestral	-12.1947
▁1868	-12.1947
▁waterfall	-12.1948
▁Shore	-12.1948
▁colonel	-12.1948
▁Wiede	-12.1948
è	-12.1949
▁attachment	-12.1949
▁setback	-12.195
▁368	-12.1951
▁Feature	-12.1953
▁moth	-12.1953
▁Rhyme	-12.1954
▁Protest	-12.1954
▁Glori	-12.1955
▁Owl	-12.1955
hinke	-12.1956
▁Gran	-12.1956
▁isolation	-12.1956
cent	-12.1956
▁allegor	-12.1957
▁restless	-12.1957
▁delet	-12.1957
▁constitut	-12.1959
▁arsen	-12.1959
▁Vida	-12.196
▁Strach	-12.196
▁Glenn	-12.1961
▁salv	-12.1961
▁excommunicat	-12.1963
▁Johannes	-12.1963
▁Rouss	-12.1963
▁Kol	-12.1964
▁Learn	-12.1964
▁audiobook	-12.1967
▁worry	-12.1968
▁conductor	-12.1969
cellula	-12.1969
ator	-12.1971
▁conspicuous	-12.1971
▁localization	-12.1972
▁Ludwi	-12.1972
▁mutin	-12.1973
kh	-12.1974
▁Gac	-12.1976
weig	-12.1976
▁Vor	-12.1977
▁Engle	-12.1977
▁Hosti	-12.1977
▁Duck	-12.1978
▁stemm	-12.1979
▁Scho	-12.198
▁Callist	-12.198
▁RPG	-12.1981
egalith	-12.1981
▁plural	-12.1982
▁Archie	-12.1983
▁Llan	-12.1985
▁urn	-12.1987
▁Cliff	-12.1987
▁microscope	-12.1987
▁dash	-12.1989
▁feudal	-12.2
triu	-12.2
▁Jovi	-12.2003
▁regulator	-12.2003
stonishing	-12.2005
▁Tate	-12.2006
▁herald	-12.2008
▁intra	-12.201
▁contractor	-12.2013
▁Ord	-12.2016
▁Dill	-12.2024
▁Mutin	-12.2026
▁Ying	-12.2027
▁mitochondria	-12.203
▁slit	-12.2032
▁Eli	-12.2033
cott	-12.2034
▁solub	-12.2036
▁vici	-12.2037
▁Gui	-12.2037
▁contributor	-12.2041
▁sl	-12.2041
▁annoying	-12.2041
cular	-12.2044
flux	-12.2048
▁Gare	-12.2051
emia	-12.2054
▁Rom	-12.2056
▁colonis	-12.2057
uwan	-12.2058
▁Vig	-12.206
▁AAA	-12.2066
▁geographical	-12.2068
▁Corr	-12.2069
▁arche	-12.2074
▁inherent	-12.2077
HO	-12.208
▁Nazis	-12.208
▁Spec	-12.2081
▁denote	-12.2084
▁demi	-12.2088
▁pledg	-12.2098
▁Exo	-12.21
▁Birth	-12.2102
▁utilis	-12.2103
▁Lot	-12.2106
▁lowland	-12.2109
▁Cristin	-12.211
▁Tyr	-12.2111
mpton	-12.2112
▁Fford	-12.2115
▁plea	-12.2117
▁Negr	-12.2118
osphere	-12.2118
▁Bossy	-12.2119
▁infer	-12.2121
rical	-12.2126
ito	-12.213
oil	-12.2132
oga	-12.2139
mede	-12.214
▁pursuer	-12.2142
▁incidental	-12.2144
▁Zoe	-12.2144
itul	-12.2145
▁batch	-12.2145
pine	-12.2147
orthern	-12.2147
ates	-12.2148
▁urge	-12.2149
▁consideration	-12.2151
rctic	-12.2152
▁holder	-12.2155
▁Role	-12.2156
▁dipp	-12.2164
▁contemplat	-12.2164
▁wasp	-12.2165
▁accessor	-12.2169
aged	-12.217
▁boxer	-12.2172
▁Cheer	-12.2177
▁Scen	-12.2178
▁snap	-12.2181
▁melodrama	-12.2183
position	-12.22
▁134	-12.2204
▁fledg	-12.2205
handler	-12.2212
▁Kawa	-12.2214
▁Cage	-12.2216
▁outlin	-12.2217
▁reliab	-12.222
▁Cot	-12.2221
▁eSport	-12.2226
▁Dreamer	-12.223
▁Lans	-12.2231
ional	-12.2232
▁Duma	-12.2232
▁Screen	-12.2241
▁erra	-12.2244
onic	-12.2246
▁Mana	-12.2258
▁Deva	-12.2259
▁vapor	-12.2261
MR	-12.2262
▁Peru	-12.2269
▁knot	-12.2273
asha	-12.2275
PI	-12.2283
▁Rec	-12.2289
▁Adil	-12.2294
SH	-12.2298
▁Warn	-12.2298
RE	-12.2302
▁Halle	-12.2302
▁AU	-12.2305
▁Cy	-12.2307
▁Vai	-12.2307
ngdong	-12.2307
lp	-12.2311
▁Saf	-12.2324
▁specialize	-12.2328
uga	-12.233
kaz	-12.233
hylogenetic	-12.233
▁ros	-12.2334
▁presiden	-12.2334
licia	-12.2342
brough	-12.2344
jal	-12.2345
▁Hunters	-12.2349
▁Otta	-12.2352
▁119	-12.2352
ping	-12.2354
nacle	-12.2355
▁cow	-12.2355
▁definiti	-12.2356
▁dedicate	-12.2357
aur	-12.2363
▁eccentric	-12.2372
▁Una	-12.2372
▁geometr	-12.2373
▁trainer	-12.2374
▁wa	-12.2375
▁Dal	-12.2375
anger	-12.238
▁relegati	-12.2386
▁gar	-12.2386
▁em	-12.2392
▁procession	-12.2393
▁silence	-12.2396
use	-12.2405
▁hardco	-12.2405
nig	-12.241
conical	-12.2413
ord	-12.2414
▁gro	-12.2424
Pau	-12.2431
lm	-12.2436
▁fairy	-12.244
grove	-12.2447
▁invok	-12.2453
▁trustees	-12.2454
oo	-12.2455
▁126	-12.2456
▁aide	-12.2459
▁Futa	-12.246
▁Whi	-12.2461
fleet	-12.2467
pool	-12.2467
leaf	-12.2467
wild	-12.247
accept	-12.2471
▁Kelle	-12.2476
▁Titan	-12.2477
▁Tra	-12.248
shot	-12.248
▁narrate	-12.248
▁Noth	-12.2481
homa	-12.2482
▁Gig	-12.2486
▁erod	-12.2488
▁Hali	-12.2489
▁rec	-12.249
faro	-12.249
kar	-12.25
llier	-12.2509
fri	-12.2509
▁Ruf	-12.251
▁132	-12.2515
dard	-12.252
tuck	-12.2524
ancy	-12.2528
▁str	-12.2528
herent	-12.2532
rke	-12.2536
Paul	-12.2537
▁behead	-12.2543
yder	-12.2547
pson	-12.255
▁Scholars	-12.2557
lli	-12.2562
▁Bab	-12.2563
▁symbolize	-12.2572
▁dose	-12.2576
▁Suss	-12.2577
▁annoy	-12.2579
titl	-12.2581
tive	-12.2583
cr	-12.2583
▁Cay	-12.2585
▁crust	-12.2586
▁dish	-12.259
▁nobili	-12.2592
osion	-12.2594
robe	-12.2595
▁Martel	-12.2598
eet	-12.2598
look	-12.2599
▁Radi	-12.26
bade	-12.2603
▁norm	-12.2604
▁Rodd	-12.2608
▁149	-12.261
▁Chel	-12.2612
▁Grims	-12.2622
▁141	-12.2625
▁wav	-12.2626
DA	-12.2626
iped	-12.2628
▁Malco	-12.2631
▁conformation	-12.2634
▁brave	-12.2636
▁fruiting	-12.2638
araj	-12.2639
▁panthe	-12.2645
▁Slan	-12.2649
▁Mand	-12.2652
▁millenni	-12.2655
▁Altar	-12.2656
▁Pigg	-12.2657
▁substitut	-12.2662
▁Uttar	-12.2666
matic	-12.2667
wing	-12.2667
nnie	-12.2668
▁logistic	-12.2668
▁cylind	-12.2671
▁Vita	-12.2672
▁Rotte	-12.2674
▁constrain	-12.2675
▁Explor	-12.2678
▁Mara	-12.2679
▁Kids	-12.268
▁Cock	-12.2685
▁Dy	-12.2688
▁exempt	-12.2689
▁republic	-12.269
▁manifest	-12.269
▁exam	-12.269
inje	-12.2691
▁Stein	-12.2692
reliminar	-12.2692
▁devou	-12.2692
▁Controvers	-12.2694
▁pseudo	-12.2695
▁equilibr	-12.2696
▁Carnegie	-12.2696
▁Cougar	-12.2696
▁Experiment	-12.2696
▁Simultaneous	-12.2696
▁astronaut	-12.2696
▁awkward	-12.2696
▁caricature	-12.2696
▁carnival	-12.2696
▁meadow	-12.2696
▁syndrome	-12.2696
▁unpredictab	-12.2696
▁Propaganda	-12.2696
▁cladogram	-12.2696
▁pencil	-12.2696
▁rendezvous	-12.2696
▁disgrace	-12.2696
▁disillusion	-12.2696
▁overshadow	-12.2696
▁susceptib	-12.2696
▁undefe	-12.2696
▁Resident	-12.2696
▁seldom	-12.2696
▁bayonet	-12.2696
▁ceratopsid	-12.2696
▁discredit	-12.2696
▁hectare	-12.2696
▁microphone	-12.2696
▁ragale	-12.2696
▁Cinque	-12.2696
▁Cumming	-12.2696
▁Lombard	-12.2696
▁accolade	-12.2696
▁Superior	-12.2696
▁antelope	-12.2696
▁lounge	-12.2696
▁Martín	-12.2696
▁cheek	-12.2696
▁Concern	-12.2696
▁premature	-12.2696
▁vector	-12.2696
▁Bahrain	-12.2696
▁paradigm	-12.2696
▁Effect	-12.2696
▁empower	-12.2696
▁Habitat	-12.2696
▁Thunder	-12.2696
état	-12.2696
▁Rutger	-12.2696
▁trash	-12.2696
▁acquaintance	-12.2696
▁Occupation	-12.2696
▁crude	-12.2696
▁indemni	-12.2696
▁cohesi	-12.2696
▁boycott	-12.2696
▁Copper	-12.2696
▁polygamist	-12.2696
▁Deacon	-12.2696
▁sacrament	-12.2696
▁Sogn	-12.2696
▁rigid	-12.2696
▁wrist	-12.2696
▁Competition	-12.2696
▁Bourbon	-12.2697
▁repetition	-12.2697
▁undertaking	-12.2697
▁Thrill	-12.2697
▁Mecca	-12.2697
▁obey	-12.2697
▁spearhead	-12.2697
▁MacDonald	-12.2697
▁viaduct	-12.2697
▁Title	-12.2697
▁judgment	-12.2697
▁toilet	-12.2697
▁ministr	-12.2697
▁falcon	-12.2697
▁confer	-12.2697
▁Schmo	-12.2697
▁socks	-12.2698
▁pilgrimage	-12.2698
▁ninja	-12.2698
▁subfamil	-12.2698
▁Anekāntav	-12.2698
▁Amste	-12.2698
▁disqualifi	-12.2698
▁René	-12.2698
▁goalkeeper	-12.2698
▁ribbon	-12.2698
▁Frame	-12.2698
▁reservation	-12.2698
▁Sloven	-12.2699
▁reroute	-12.2699
▁monkey	-12.2699
▁hemisphere	-12.2699
▁Sabre	-12.2699
▁Boeing	-12.2699
▁León	-12.2699
▁tilt	-12.27
▁Innocent	-12.27
▁contestant	-12.27
▁goalscorer	-12.27
ntz	-12.27
▁1170	-12.27
▁McKa	-12.27
ilke	-12.2701
▁dentist	-12.2701
▁Parrot	-12.2701
▁Should	-12.2701
▁enrollment	-12.2701
▁Margin	-12.2702
▁magician	-12.2702
▁Thurs	-12.2702
▁wrapp	-12.2702
▁bicycle	-12.2703
▁inconsistenc	-12.2703
▁turnpike	-12.2703
▁monopol	-12.2704
centric	-12.2705
▁Susanna	-12.2706
▁disk	-12.2706
▁Majest	-12.2706
▁Kung	-12.2706
▁Montenegrin	-12.2706
▁hymeni	-12.2707
▁porch	-12.2707
oria	-12.2707
▁banish	-12.2707
▁cull	-12.2707
▁turnover	-12.2708
▁Antiquari	-12.2708
▁compress	-12.2708
ailz	-12.2708
▁slaughter	-12.2708
▁scripture	-12.2709
▁Flemi	-12.2709
ception	-12.2709
íg	-12.2709
ovo	-12.271
▁Colton	-12.271
▁motorist	-12.271
nock	-12.2711
hu	-12.2711
▁Fuji	-12.2711
▁attendee	-12.2711
▁Crass	-12.2713
▁pastoral	-12.2713
lund	-12.2715
▁Please	-12.2717
▁constraint	-12.2717
kang	-12.2717
▁Parson	-12.2717
▁Patrol	-12.2718
▁Palestr	-12.2718
▁unpai	-12.2719
▁Marle	-12.2719
▁savage	-12.2719
▁fool	-12.2721
▁716	-12.2723
elief	-12.2723
▁290	-12.2725
▁Rodr	-12.2725
▁Eat	-12.2727
▁Bachch	-12.2727
▁uphold	-12.2727
▁beard	-12.2728
▁foli	-12.2728
▁invert	-12.2729
▁posthumously	-12.2729
▁pause	-12.2729
▁Chao	-12.2729
▁amass	-12.273
▁blessing	-12.273
▁Hitch	-12.2731
cius	-12.2731
pi	-12.2731
▁Cardinals	-12.2731
▁Saw	-12.2731
enz	-12.2731
▁contracepti	-12.2732
▁Fatalit	-12.2732
▁Husse	-12.2732
iff	-12.2733
▁populariz	-12.2733
rigger	-12.2734
▁Border	-12.2736
▁Nant	-12.2736
▁loving	-12.2737
▁Geologic	-12.2738
▁Buchan	-12.2739
▁pann	-12.2739
haracteristics	-12.2739
▁Kinney	-12.2739
▁confine	-12.274
▁McCoy	-12.274
▁Shaiv	-12.2742
▁Important	-12.2743
▁XeO	-12.2744
▁governors	-12.2746
▁propulsi	-12.2746
ddie	-12.2747
▁Marco	-12.2749
▁Alder	-12.2749
▁Close	-12.2751
▁Manito	-12.2752
▁Wad	-12.2754
wazi	-12.2755
▁Spur	-12.2764
▁Montagn	-12.2767
▁elegant	-12.2769
▁Fitz	-12.277
aise	-12.277
▁afr	-12.2771
▁terrif	-12.2771
▁Solo	-12.2771
mantle	-12.2771
▁immers	-12.2773
ovation	-12.2775
▁bench	-12.2776
yama	-12.2777
link	-12.2778
▁Stephan	-12.2779
▁forb	-12.278
▁Denn	-12.2783
▁laps	-12.2786
ines	-12.2787
▁Michelin	-12.2788
▁270	-12.279
▁Por	-12.2793
▁gland	-12.2793
known	-12.2795
▁Willis	-12.2797
▁Gonzale	-12.2799
▁Ule	-12.2799
▁fable	-12.2801
▁Bha	-12.2801
▁admirer	-12.2802
▁Camel	-12.2803
▁Hono	-12.2803
▁naya	-12.2803
èt	-12.2807
dish	-12.2808
▁Kot	-12.2808
EC	-12.2811
▁vint	-12.2813
▁Linda	-12.2814
▁1600	-12.2814
▁ACE	-12.2815
▁rig	-12.2817
▁terror	-12.2817
urine	-12.282
▁herbivore	-12.2824
verness	-12.2825
▁Lenin	-12.2826
▁abduct	-12.2827
▁262	-12.2828
ogie	-12.2831
▁Mills	-12.2832
rell	-12.2832
▁305	-12.2832
▁crescen	-12.2836
▁Primar	-12.2836
ert	-12.2837
▁Kama	-12.2838
omanche	-12.2838
▁Anup	-12.2841
▁forgive	-12.2841
▁precipitat	-12.2841
▁Nun	-12.2842
▁Agnes	-12.2844
▁hypothe	-12.2844
▁phenomena	-12.2848
cia	-12.285
▁tipp	-12.2852
▁ribosome	-12.2855
▁Maids	-12.2857
▁presid	-12.2858
▁Wilt	-12.2858
▁Veni	-12.286
▁Naga	-12.286
▁Academic	-12.2864
▁reel	-12.2867
▁Lil	-12.2867
▁Malt	-12.287
▁Bei	-12.2879
▁Tyl	-12.2879
iful	-12.2879
▁Teams	-12.2883
▁embrac	-12.2885
▁spurr	-12.2885
tz	-12.2886
▁Wend	-12.2893
nal	-12.2893
▁whit	-12.2894
▁favourabl	-12.2899
▁Russ	-12.2899
▁dissolv	-12.2899
▁Florenc	-12.29
▁Kana	-12.2901
▁Shand	-12.2904
terti	-12.2912
▁spectra	-12.2912
▁Nas	-12.2913
▁collaborate	-12.2914
shine	-12.2915
▁Toy	-12.2915
▁summ	-12.2916
▁pollut	-12.2917
▁recreate	-12.2917
▁Scra	-12.2918
▁Yal	-12.2918
▁violet	-12.2919
▁laughing	-12.2921
rk	-12.2924
enden	-12.2927
▁punctuat	-12.2928
▁Minerv	-12.293
▁Bros	-12.2936
weller	-12.2937
NU	-12.2937
▁cry	-12.2945
▁Sv	-12.2945
vich	-12.2946
▁barr	-12.2947
▁cello	-12.2948
ipe	-12.2948
▁Runn	-12.2948
▁improvis	-12.295
▁Nord	-12.2951
▁conscript	-12.2954
▁plagiaris	-12.2955
▁Hanu	-12.2955
▁Mart	-12.2956
▁traveller	-12.2957
▁Oz	-12.2963
▁Issue	-12.2965
gli	-12.297
▁Dual	-12.297
uble	-12.2972
▁antique	-12.2973
▁wart	-12.2979
▁lambs	-12.298
▁elongat	-12.298
racks	-12.2985
▁Use	-12.2987
late	-12.2989
▁infiltrate	-12.299
▁Lyd	-12.2992
▁Mort	-12.2996
▁Mul	-12.2996
BS	-12.2999
▁coordinate	-12.3002
inawa	-12.3007
▁dub	-12.3008
▁revolve	-12.3009
▁ioniz	-12.3012
▁Ava	-12.3012
▁Loi	-12.3013
kla	-12.3015
▁Feli	-12.3015
▁Change	-12.302
▁dismisse	-12.3026
▁curl	-12.3028
arta	-12.3029
▁heal	-12.303
ogenes	-12.3033
▁giv	-12.3034
▁Carly	-12.3035
▁Neo	-12.3036
▁gener	-12.3042
▁Doh	-12.3047
▁predat	-12.3052
▁Beatt	-12.3055
ria	-12.3056
▁Yog	-12.3056
etta	-12.3063
adu	-12.3064
▁Ry	-12.3064
kins	-12.3067
▁wipe	-12.3069
▁Ala	-12.307
▁Donn	-12.3072
▁Piz	-12.3073
uation	-12.3073
pard	-12.3077
shes	-12.3078
▁flora	-12.3084
▁luc	-12.3087
form	-12.3088
▁Stamp	-12.309
▁lust	-12.3097
▁tun	-12.3098
▁Romantic	-12.3098
▁rep	-12.31
▁Heat	-12.3101
▁Unc	-12.3101
▁Lon	-12.3102
▁assassinat	-12.3102
▁shak	-12.3104
▁discus	-12.3107
▁allude	-12.311
▁Plat	-12.3117
estre	-12.3118
▁specifi	-12.3121
▁Heron	-12.3121
adys	-12.3125
ista	-12.3129
▁Tele	-12.313
▁please	-12.3136
van	-12.3137
▁Thie	-12.3138
▁volt	-12.3143
▁Teng	-12.3146
▁Kowa	-12.3148
ju	-12.3149
cene	-12.3152
▁basidi	-12.3164
▁....	-12.3167
▁Dalm	-12.3169
▁Terra	-12.317
▁marginal	-12.3172
oko	-12.3173
▁planner	-12.3177
po	-12.3178
▁reactiv	-12.3184
▁Mak	-12.3184
awi	-12.3197
▁revolv	-12.3199
▁Picc	-12.3201
▁Word	-12.3204
elf	-12.3205
chel	-12.3214
essel	-12.3215
▁infiltrat	-12.3218
ospor	-12.3218
zak	-12.3222
bach	-12.3231
▁McMan	-12.3234
lide	-12.3237
▁clar	-12.3239
▁sir	-12.3244
rant	-12.3244
▁hay	-12.3244
▁venerat	-12.3245
▁Kv	-12.3245
▁Coache	-12.3248
▁woo	-12.3249
▁Mada	-12.3249
tsuki	-12.3252
▁neur	-12.3253
fight	-12.3254
▁Ak	-12.3256
▁cooperate	-12.3258
llt	-12.326
▁NHA	-12.326
▁gamma	-12.3261
▁shower	-12.3262
stad	-12.3264
eyer	-12.3264
▁Gau	-12.3265
ope	-12.3267
ellico	-12.3279
▁Vel	-12.328
▁Xu	-12.328
82	-12.328
▁bounc	-12.3281
Pro	-12.3282
▁Andr	-12.3283
660	-12.3284
azz	-12.3284
▁Collaborati	-12.3285
▁pos	-12.3288
▁communicat	-12.329
▁Jian	-12.329
violet	-12.3292
sworth	-12.3292
▁Damie	-12.3294
RB	-12.3295
▁manse	-12.3298
aritime	-12.3299
screen	-12.3299
memorial	-12.33
Africa	-12.3301
▁Edd	-12.3302
▁sighted	-12.3306
▁dear	-12.3307
Nf	-12.3311
▁Haye	-12.3316
continental	-12.3316
▁pal	-12.332
▁Bach	-12.3324
▁legislati	-12.3326
urani	-12.3331
▁embrace	-12.3332
▁Spot	-12.3337
▁Dore	-12.3338
raja	-12.3344
▁irre	-12.335
▁reliabl	-12.3352
oul	-12.3353
rising	-12.3355
▁Sel	-12.3357
som	-12.336
▁digit	-12.336
▁lecture	-12.3362
aku	-12.3364
dragon	-12.3367
▁mal	-12.3368
ala	-12.3372
▁crypt	-12.3377
▁WN	-12.3379
derland	-12.338
▁cute	-12.3382
orum	-12.3386
now	-12.3387
▁stabilize	-12.3388
▁mall	-12.3388
▁dismantl	-12.3391
Sb	-12.3393
▁Treasure	-12.3396
▁Sev	-12.34
intend	-12.3411
oire	-12.3413
▁Ivor	-12.3415
story	-12.3415
▁endors	-12.3415
▁Raide	-12.3416
quest	-12.3418
▁Feel	-12.3419
▁Rik	-12.3424
▁Nois	-12.3425
smo	-12.3426
etary	-12.3428
BM	-12.343
tron	-12.3431
▁Lor	-12.3432
▁scuttl	-12.3433
mind	-12.3435
bandonment	-12.3439
▁stowa	-12.344
▁enforc	-12.3443
lic	-12.3448
pop	-12.3452
▁admitt	-12.3455
▁donate	-12.3455
lington	-12.3456
▁relativ	-12.3457
▁Mick	-12.3457
rium	-12.3458
▁Kno	-12.347
▁Saba	-12.3471
mair	-12.3475
▁rim	-12.348
▁reconcili	-12.3481
▁minds	-12.3484
ikh	-12.3487
▁regret	-12.3487
arth	-12.3491
▁imag	-12.3492
unami	-12.3494
▁wise	-12.3494
▁blog	-12.3497
ides	-12.3497
▁affi	-12.3497
āda	-12.3497
rake	-12.3504
▁Hom	-12.3504
▁duel	-12.3506
gassi	-12.3507
▁Came	-12.3508
▁freight	-12.3508
illard	-12.3508
▁snapp	-12.3508
▁Ganga	-12.3509
▁defect	-12.3516
▁mimic	-12.3518
▁spectac	-12.3522
arvin	-12.3523
▁humiliat	-12.3523
nagar	-12.3524
▁Specific	-12.3524
▁volcan	-12.3524
▁counsel	-12.3525
▁Collect	-12.3526
▁pilgrim	-12.3527
▁instinct	-12.3527
ounterfeit	-12.3527
▁swim	-12.3527
▁taxonom	-12.3528
anasi	-12.3529
▁Reflecti	-12.3529
▁Adapt	-12.3529
▁occult	-12.3529
▁Mirror	-12.3529
▁Moscow	-12.3529
▁Neoscapteriscus	-12.3529
▁Roadblock	-12.3529
▁Zimbabwe	-12.3529
▁ceramic	-12.3529
▁forfeit	-12.3529
▁inconsistent	-12.3529
▁jersey	-12.3529
▁lanthanide	-12.3529
▁masculin	-12.3529
▁mislead	-12.3529
▁necklace	-12.3529
▁peculiar	-12.3529
▁refrain	-12.3529
▁syphili	-12.3529
ographic	-12.3529
▁Ancona	-12.3529
▁Gustav	-12.3529
▁Kaufman	-12.3529
▁Meredith	-12.3529
▁Mithra	-12.3529
▁Naples	-12.3529
▁cistern	-12.3529
▁forelimb	-12.3529
▁Beaufighter	-12.3529
▁Caucas	-12.3529
▁Graphic	-12.3529
▁cautious	-12.3529
▁Berardi	-12.3529
▁epidemic	-12.3529
▁transverse	-12.3529
▁monologue	-12.3529
▁catastroph	-12.3529
▁cirr	-12.3529
▁clause	-12.3529
▁Enriqu	-12.3529
▁McLe	-12.3529
▁pedestrian	-12.3529
▁straightforward	-12.3529
▁mechaniz	-12.3529
▁Folklor	-12.3529
▁discount	-12.3529
▁linebacker	-12.3529
▁stint	-12.3529
▁Athlete	-12.3529
▁Turtle	-12.3529
▁Worcestershire	-12.3529
▁redoubt	-12.3529
▁Essay	-12.3529
▁vaudevill	-12.3529
Bungie	-12.3529
▁Yucat	-12.3529
▁carpet	-12.3529
▁caution	-12.3529
▁GCSE	-12.3529
▁lifespan	-12.3529
▁precinct	-12.3529
▁pride	-12.3529
▁Bengal	-12.3529
▁clue	-12.3529
▁minigame	-12.3529
▁reissue	-12.3529
▁Pesca	-12.3529
▁Vincent	-12.3529
▁indenture	-12.3529
▁quarrel	-12.3529
▁Predator	-12.353
▁Jeep	-12.353
▁pectoral	-12.353
▁magnate	-12.353
▁Consider	-12.353
▁delegation	-12.353
▁Eleven	-12.353
▁delightful	-12.353
▁Significant	-12.353
▁bracket	-12.353
▁Andorian	-12.353
▁Increasing	-12.353
▁quarry	-12.353
▁remedy	-12.353
▁slogan	-12.353
▁frighten	-12.353
▁Thirteen	-12.353
▁subdivision	-12.3531
▁ambien	-12.3531
▁waist	-12.3531
▁Hebride	-12.3531
▁Muang	-12.3531
▁feast	-12.3531
▁anthropomorphi	-12.3531
▁simulator	-12.3531
▁Editor	-12.3531
▁Knowles	-12.3531
▁Titus	-12.3531
▁muscular	-12.3531
▁Marriage	-12.3531
▁screw	-12.3531
▁Khmer	-12.3531
▁Koval	-12.3531
▁Marquis	-12.3531
▁seedling	-12.3532
▁Goldberg	-12.3532
▁emission	-12.3532
▁dockyard	-12.3532
▁Gryllotalpa	-12.3532
▁african	-12.3532
▁Hopkin	-12.3532
▁Beaver	-12.3532
▁ferre	-12.3532
▁enrich	-12.3532
▁fracture	-12.3532
▁hoist	-12.3533
▁boulevard	-12.3533
▁brake	-12.3533
▁Hanover	-12.3533
▁overpass	-12.3533
▁affiliation	-12.3533
▁cinematic	-12.3533
▁peripheral	-12.3533
▁Gilda	-12.3533
▁Territorial	-12.3534
▁intruder	-12.3534
▁bump	-12.3534
▁Magnetic	-12.3534
▁discourage	-12.3534
▁dissatisf	-12.3534
▁exotic	-12.3534
▁Matag	-12.3534
▁fide	-12.3535
▁Senna	-12.3535
plausibl	-12.3535
▁Hugo	-12.3535
▁MeV	-12.3535
▁craftsman	-12.3535
▁Puma	-12.3535
▁Luther	-12.3536
▁generous	-12.3536
▁Wine	-12.3536
▁singular	-12.3536
rdnance	-12.3536
▁spectacle	-12.3536
für	-12.3537
▁Blond	-12.3537
édér	-12.3537
▁Wiki	-12.3537
▁Adorj	-12.3537
▁spectroscop	-12.3537
▁yeast	-12.3537
▁froze	-12.3539
▁vivi	-12.3539
▁fibre	-12.354
▁533	-12.354
▁penta	-12.354
▁Hollin	-12.354
▁Legion	-12.3541
▁framing	-12.3541
▁fieldfare	-12.3541
▁riddle	-12.3541
▁peptide	-12.3541
▁Falcon	-12.3541
▁vain	-12.3541
▁Murchad	-12.3542
▁Location	-12.3542
▁rarit	-12.3543
spora	-12.3543
▁Xia	-12.3544
▁miniature	-12.3545
▁animator	-12.3545
▁Mouse	-12.3545
▁Direction	-12.3545
▁upright	-12.3545
▁Narayan	-12.3545
▁investigator	-12.3546
dyll	-12.3547
▁Preserv	-12.3547
wen	-12.3548
▁index	-12.3548
▁pill	-12.3548
▁Trotter	-12.3549
▁implementation	-12.355
▁Trim	-12.355
▁Kedar	-12.3551
▁magnific	-12.3552
▁Gibbons	-12.3552
▁Goose	-12.3552
▁Nubia	-12.3553
▁Illustrated	-12.3554
▁posit	-12.3554
▁Meko	-12.3554
▁Shrine	-12.3555
action	-12.3556
▁Ceratopsia	-12.3556
▁Propert	-12.3556
▁judgement	-12.3557
yuz	-12.3557
▁cope	-12.3558
▁claimant	-12.356
▁Levant	-12.356
▁offence	-12.356
ectar	-12.356
▁Trin	-12.356
affir	-12.3561
▁surf	-12.3561
▁Farle	-12.3561
▁monast	-12.3561
▁Emmet	-12.3562
▁Kitty	-12.3563
▁Sharma	-12.3563
▁auditor	-12.3564
▁necessitat	-12.3565
▁engraving	-12.3567
▁Guards	-12.3567
dych	-12.3568
[...]
